unsigned char handshake_model_tflite[] = {
  0x1c, 0x00, 0x00, 0x00, 0x54, 0x46, 0x4c, 0x33, 0x14, 0x00, 0x20, 0x00,
  0x1c, 0x00, 0x18, 0x00, 0x14, 0x00, 0x10, 0x00, 0x0c, 0x00, 0x00, 0x00,
  0x08, 0x00, 0x04, 0x00, 0x14, 0x00, 0x00, 0x00, 0x1c, 0x00, 0x00, 0x00,
  0x8c, 0x00, 0x00, 0x00, 0xe4, 0x00, 0x00, 0x00, 0x90, 0x0f, 0x00, 0x00,
  0xa0, 0x0f, 0x00, 0x00, 0x34, 0x15, 0x00, 0x00, 0x03, 0x00, 0x00, 0x00,
  0x01, 0x00, 0x00, 0x00, 0x04, 0x00, 0x00, 0x00, 0x22, 0xf0, 0xff, 0xff,
  0x0c, 0x00, 0x00, 0x00, 0x1c, 0x00, 0x00, 0x00, 0x3c, 0x00, 0x00, 0x00,
  0x0f, 0x00, 0x00, 0x00, 0x73, 0x65, 0x72, 0x76, 0x69, 0x6e, 0x67, 0x5f,
  0x64, 0x65, 0x66, 0x61, 0x75, 0x6c, 0x74, 0x00, 0x01, 0x00, 0x00, 0x00,
  0x04, 0x00, 0x00, 0x00, 0x90, 0xff, 0xff, 0xff, 0x0a, 0x00, 0x00, 0x00,
  0x04, 0x00, 0x00, 0x00, 0x08, 0x00, 0x00, 0x00, 0x6f, 0x75, 0x74, 0x70,
  0x75, 0x74, 0x5f, 0x30, 0x00, 0x00, 0x00, 0x00, 0x01, 0x00, 0x00, 0x00,
  0x04, 0x00, 0x00, 0x00, 0x32, 0xf1, 0xff, 0xff, 0x04, 0x00, 0x00, 0x00,
  0x0c, 0x00, 0x00, 0x00, 0x6b, 0x65, 0x72, 0x61, 0x73, 0x5f, 0x74, 0x65,
  0x6e, 0x73, 0x6f, 0x72, 0x00, 0x00, 0x00, 0x00, 0x02, 0x00, 0x00, 0x00,
  0x34, 0x00, 0x00, 0x00, 0x04, 0x00, 0x00, 0x00, 0xdc, 0xff, 0xff, 0xff,
  0x0d, 0x00, 0x00, 0x00, 0x04, 0x00, 0x00, 0x00, 0x13, 0x00, 0x00, 0x00,
  0x43, 0x4f, 0x4e, 0x56, 0x45, 0x52, 0x53, 0x49, 0x4f, 0x4e, 0x5f, 0x4d,
  0x45, 0x54, 0x41, 0x44, 0x41, 0x54, 0x41, 0x00, 0x08, 0x00, 0x0c, 0x00,
  0x08, 0x00, 0x04, 0x00, 0x08, 0x00, 0x00, 0x00, 0x0c, 0x00, 0x00, 0x00,
  0x04, 0x00, 0x00, 0x00, 0x13, 0x00, 0x00, 0x00, 0x6d, 0x69, 0x6e, 0x5f,
  0x72, 0x75, 0x6e, 0x74, 0x69, 0x6d, 0x65, 0x5f, 0x76, 0x65, 0x72, 0x73,
  0x69, 0x6f, 0x6e, 0x00, 0x0e, 0x00, 0x00, 0x00, 0xa8, 0x0e, 0x00, 0x00,
  0xa0, 0x0e, 0x00, 0x00, 0x50, 0x0e, 0x00, 0x00, 0x38, 0x06, 0x00, 0x00,
  0x24, 0x06, 0x00, 0x00, 0xd4, 0x05, 0x00, 0x00, 0x44, 0x05, 0x00, 0x00,
  0xb4, 0x00, 0x00, 0x00, 0xac, 0x00, 0x00, 0x00, 0xa4, 0x00, 0x00, 0x00,
  0x9c, 0x00, 0x00, 0x00, 0x94, 0x00, 0x00, 0x00, 0x74, 0x00, 0x00, 0x00,
  0x04, 0x00, 0x00, 0x00, 0xe6, 0xf1, 0xff, 0xff, 0x04, 0x00, 0x00, 0x00,
  0x60, 0x00, 0x00, 0x00, 0x10, 0x00, 0x00, 0x00, 0x00, 0x00, 0x00, 0x00,
  0x08, 0x00, 0x0e, 0x00, 0x08, 0x00, 0x04, 0x00, 0x08, 0x00, 0x00, 0x00,
  0x10, 0x00, 0x00, 0x00, 0x24, 0x00, 0x00, 0x00, 0x00, 0x00, 0x06, 0x00,
  0x08, 0x00, 0x04, 0x00, 0x06, 0x00, 0x00, 0x00, 0x04, 0x00, 0x00, 0x00,
  0x00, 0x00, 0x00, 0x00, 0x0c, 0x00, 0x18, 0x00, 0x14, 0x00, 0x10, 0x00,
  0x0c, 0x00, 0x04, 0x00, 0x0c, 0x00, 0x00, 0x00, 0x28, 0x6a, 0x18, 0xda,
  0x8e, 0xca, 0x64, 0x52, 0x02, 0x00, 0x00, 0x00, 0x02, 0x00, 0x00, 0x00,
  0x04, 0x00, 0x00, 0x00, 0x06, 0x00, 0x00, 0x00, 0x32, 0x2e, 0x31, 0x39,
  0x2e, 0x30, 0x00, 0x00, 0x52, 0xf2, 0xff, 0xff, 0x04, 0x00, 0x00, 0x00,
  0x10, 0x00, 0x00, 0x00, 0x31, 0x2e, 0x31, 0x34, 0x2e, 0x30, 0x00, 0x00,
  0x00, 0x00, 0x00, 0x00, 0x00, 0x00, 0x00, 0x00, 0xa0, 0xec, 0xff, 0xff,
  0xa4, 0xec, 0xff, 0xff, 0xa8, 0xec, 0xff, 0xff, 0xac, 0xec, 0xff, 0xff,
  0x7e, 0xf2, 0xff, 0xff, 0x04, 0x00, 0x00, 0x00, 0x80, 0x04, 0x00, 0x00,
  0x12, 0x99, 0x97, 0xbe, 0xf5, 0x18, 0x34, 0xbe, 0xf8, 0xbd, 0xb7, 0xbe,
  0xcf, 0xf1, 0x90, 0x3e, 0x58, 0xd2, 0x9c, 0xbd, 0x23, 0xc4, 0xa5, 0xbe,
  0xbc, 0x4a, 0x2c, 0xbe, 0xed, 0x17, 0x8a, 0xbe, 0x2b, 0xfd, 0x6e, 0xbe,
  0xa3, 0xbd, 0x7b, 0x3d, 0xdf, 0xfd, 0xd5, 0xbe, 0x04, 0x2b, 0x89, 0xbe,
  0x46, 0x13, 0xb1, 0xbe, 0x7d, 0xe7, 0x1d, 0x3e, 0x58, 0x8c, 0x39, 0x3e,
  0x6a, 0xdd, 0x1f, 0xbe, 0x3d, 0xb1, 0x91, 0x3e, 0x5c, 0x50, 0x88, 0x3d,
  0xeb, 0x80, 0x83, 0x3e, 0xb9, 0x07, 0x6f, 0xbe, 0x89, 0xcb, 0xa0, 0xbd,
  0x8f, 0x20, 0x2d, 0xbd, 0xa5, 0x76, 0x08, 0x3f, 0xca, 0xc3, 0x7e, 0x3e,
  0x57, 0xb8, 0x92, 0xbd, 0xb4, 0xb9, 0x2f, 0x3e, 0x65, 0xa5, 0x8a, 0xbe,
  0xac, 0x0a, 0x81, 0xbe, 0xc0, 0x1b, 0x89, 0x3c, 0x20, 0x1f, 0x75, 0x3d,
  0x7a, 0x1a, 0x78, 0x3b, 0x6b, 0xcb, 0xa0, 0xbe, 0xfd, 0xd4, 0x86, 0xbe,
  0x29, 0x2f, 0xcc, 0xbe, 0x0e, 0xcb, 0x05, 0xbd, 0x43, 0x17, 0xd2, 0xbd,
  0xbe, 0x56, 0xd6, 0x3b, 0x6c, 0x23, 0x14, 0xbe, 0x30, 0x57, 0x26, 0x3e,
  0x9f, 0xd5, 0xb0, 0xbe, 0x0b, 0x98, 0x5a, 0x3e, 0x36, 0xb4, 0x67, 0xbe,
  0x32, 0x60, 0xce, 0x3e, 0x34, 0xd2, 0x4a, 0xbe, 0x79, 0xa1, 0x96, 0xbe,
  0x61, 0x32, 0x3c, 0x3e, 0x49, 0x17, 0x45, 0xbe, 0xab, 0x63, 0xc9, 0xbd,
  0x3c, 0xc5, 0x6b, 0x3e, 0xa0, 0xd6, 0x7a, 0x3e, 0x15, 0x09, 0x4b, 0x3b,
  0x07, 0xa3, 0x34, 0xbe, 0xd6, 0x0d, 0x53, 0x3e, 0x9e, 0x8f, 0xee, 0xbd,
  0x45, 0x9e, 0x1c, 0xbe, 0x1b, 0x4f, 0x2c, 0x3e, 0xf5, 0x12, 0x95, 0xbe,
  0xf5, 0x60, 0x84, 0x3d, 0xea, 0x11, 0xac, 0xbe, 0xc6, 0xf6, 0x88, 0xbd,
  0x46, 0xae, 0x4a, 0x3e, 0x66, 0x2f, 0x28, 0xbd, 0x18, 0x66, 0x81, 0xbe,
  0x69, 0x22, 0x08, 0xbd, 0x43, 0x00, 0x6f, 0x3e, 0x55, 0x09, 0x30, 0xbe,
  0x25, 0xfc, 0xa7, 0xbe, 0x69, 0x0d, 0xf3, 0x3e, 0xb6, 0xc0, 0x7c, 0xbe,
  0x88, 0x7d, 0x98, 0xbe, 0xf8, 0xbd, 0x94, 0x3d, 0x54, 0x79, 0xab, 0x3d,
  0xf2, 0x85, 0xaa, 0xbe, 0x43, 0x2f, 0x43, 0x3e, 0x3e, 0x8a, 0x81, 0xbe,
  0xd7, 0x8e, 0xc6, 0xbe, 0xc3, 0x87, 0xa5, 0xbd, 0x22, 0x45, 0xcd, 0x3d,
  0x7a, 0x8b, 0xc1, 0xbd, 0x57, 0x30, 0x7e, 0x3d, 0x3b, 0x90, 0xc5, 0x3e,
  0x0a, 0x83, 0x48, 0xbd, 0x8e, 0x68, 0x7d, 0xbd, 0x6a, 0x25, 0xb6, 0x3e,
  0xb7, 0x7a, 0x68, 0x3e, 0xad, 0xed, 0x97, 0xbe, 0xc8, 0x29, 0xdf, 0x3b,
  0xd6, 0x53, 0x65, 0xbe, 0xd6, 0xc4, 0x65, 0xbe, 0x83, 0x34, 0xb5, 0xbe,
  0x7a, 0x06, 0xa4, 0xbc, 0xc8, 0xef, 0x57, 0x3d, 0x87, 0x2a, 0x9d, 0x3e,
  0xae, 0x07, 0xb3, 0xbe, 0x16, 0x76, 0xe7, 0x3d, 0xba, 0x71, 0xb9, 0x3c,
  0x01, 0x99, 0x73, 0xbe, 0x25, 0xe5, 0x51, 0x3e, 0x28, 0x6a, 0x12, 0x3e,
  0xe7, 0x2f, 0x26, 0xbe, 0x93, 0x8b, 0xa5, 0x3d, 0x0f, 0x23, 0x9e, 0x3e,
  0x6f, 0x2d, 0x1f, 0x3d, 0xd6, 0x66, 0xe2, 0xbe, 0x50, 0xbc, 0xd2, 0xbe,
  0x06, 0xe7, 0x27, 0x3e, 0xa3, 0x37, 0x87, 0x3d, 0x38, 0x60, 0xd4, 0xbd,
  0xbb, 0xaa, 0xb4, 0x3e, 0xa1, 0x27, 0xe0, 0x3d, 0x15, 0x17, 0xa3, 0x3e,
  0x66, 0x1c, 0x71, 0xbe, 0xce, 0xb3, 0x9f, 0xbe, 0xb1, 0x7b, 0xaa, 0x3d,
  0x74, 0x25, 0x71, 0x3e, 0xe8, 0x01, 0x4d, 0x3e, 0xc8, 0xac, 0xc6, 0x3d,
  0x0f, 0xec, 0x93, 0xbe, 0xe2, 0x09, 0x17, 0xbe, 0x66, 0x86, 0x03, 0xbe,
  0xb4, 0xf6, 0x90, 0xbe, 0x91, 0x97, 0xc1, 0xbe, 0xa6, 0x6f, 0xcd, 0xbd,
  0x33, 0xd2, 0x06, 0x3e, 0x9e, 0x07, 0x94, 0x38, 0x0f, 0xb4, 0x94, 0xbd,
  0x43, 0x88, 0x1f, 0xbc, 0x3b, 0x18, 0x9b, 0xbe, 0xc2, 0x20, 0x44, 0x3e,
  0x6b, 0xe5, 0x98, 0x3d, 0x02, 0xa0, 0x8c, 0x3e, 0x20, 0xbd, 0x74, 0xbe,
  0xf5, 0x06, 0xc6, 0x3e, 0x8c, 0x76, 0xe8, 0x3d, 0xb0, 0x3a, 0x64, 0x3e,
  0xe7, 0xa6, 0x85, 0xbe, 0x9c, 0x54, 0x7f, 0x3e, 0xdb, 0xde, 0x63, 0x3e,
  0x23, 0xd4, 0x1c, 0xbe, 0xa7, 0xaa, 0xce, 0xbd, 0xed, 0x17, 0x76, 0xbe,
  0x19, 0x23, 0xcd, 0xbd, 0x2c, 0xbf, 0x9a, 0xbe, 0x1f, 0x71, 0x43, 0xbe,
  0x85, 0xf6, 0x2d, 0xbe, 0x10, 0x9e, 0x6b, 0xbe, 0x3c, 0x75, 0x2e, 0xbe,
  0xf7, 0xe6, 0x1a, 0xbe, 0xec, 0x0a, 0x01, 0xbe, 0x08, 0x0a, 0x8e, 0xbe,
  0x7b, 0x33, 0x92, 0xbe, 0x3b, 0x78, 0x3d, 0xbe, 0x34, 0xb2, 0xc7, 0x3e,
  0xff, 0xf3, 0x5f, 0xbe, 0x73, 0x51, 0x06, 0x3e, 0x85, 0xed, 0xfb, 0x3d,
  0x11, 0x55, 0x1c, 0xbd, 0x8f, 0xba, 0x87, 0x3e, 0x03, 0x10, 0x60, 0x3e,
  0x6c, 0xd6, 0xa0, 0x3e, 0x3c, 0x08, 0xb4, 0x3b, 0x62, 0xf5, 0x7e, 0x3e,
  0x01, 0x4e, 0x28, 0x3e, 0x4e, 0x57, 0xc3, 0x3e, 0x71, 0x97, 0x7b, 0xbe,
  0x3d, 0x9d, 0xbc, 0x3d, 0xa7, 0xd4, 0x24, 0xbe, 0x5a, 0x07, 0x5c, 0x3e,
  0xfa, 0x7d, 0x04, 0x3a, 0xd7, 0xdf, 0x05, 0xbc, 0x05, 0xc9, 0x08, 0xbd,
  0xae, 0x68, 0x5d, 0xbe, 0x7a, 0x75, 0x97, 0xbe, 0x81, 0xb9, 0xd5, 0xbe,
  0x3c, 0xd6, 0x6d, 0xbe, 0x2f, 0x4a, 0x80, 0x3e, 0xc3, 0x5c, 0x71, 0x3e,
  0x0f, 0xf7, 0x4a, 0x3e, 0xfd, 0x0c, 0x33, 0x3e, 0xe3, 0xa0, 0xe0, 0xbc,
  0xa2, 0x2a, 0xed, 0x3d, 0x37, 0x4c, 0x1c, 0x3e, 0x1d, 0xed, 0x71, 0x3e,
  0x38, 0xc3, 0xa7, 0x3e, 0x49, 0xc4, 0x71, 0x3e, 0xcf, 0x6f, 0x92, 0xbe,
  0x20, 0xa9, 0xd7, 0x3d, 0x8f, 0x61, 0x05, 0x3d, 0xfd, 0xee, 0x4f, 0x3e,
  0xe1, 0xd1, 0x33, 0x3e, 0xba, 0xf7, 0x8a, 0x3c, 0x67, 0xd1, 0xc6, 0x3d,
  0x06, 0x2a, 0xfa, 0xbd, 0x85, 0x9c, 0x72, 0xbe, 0x49, 0x23, 0x96, 0x3e,
  0x89, 0x3f, 0xa3, 0x3e, 0x57, 0xdf, 0x2b, 0xbd, 0x20, 0xd8, 0x9d, 0xbe,
  0x20, 0xdc, 0x02, 0x3d, 0xca, 0x6c, 0x79, 0x3e, 0x42, 0x0a, 0x9f, 0xbe,
  0x4a, 0x4b, 0xdc, 0xbd, 0x10, 0x30, 0x1a, 0x3e, 0x58, 0x19, 0x65, 0x3e,
  0x68, 0x31, 0x1e, 0xbd, 0x14, 0x94, 0x8b, 0xbe, 0xf2, 0x35, 0x05, 0x3e,
  0xee, 0xa4, 0x96, 0xbe, 0xf1, 0xa9, 0x97, 0xbe, 0x46, 0xb1, 0xdf, 0x3d,
  0x55, 0xa5, 0x1f, 0x3e, 0xff, 0x17, 0xa6, 0xbd, 0x22, 0x26, 0x11, 0xbe,
  0x32, 0x21, 0x8b, 0x3d, 0x13, 0xd8, 0xe2, 0xbd, 0xaf, 0xea, 0x33, 0x3c,
  0xcb, 0x3d, 0x2f, 0x3e, 0xc2, 0x68, 0xb7, 0xbd, 0x3b, 0x13, 0xf4, 0xbd,
  0x96, 0x2c, 0xfd, 0xbd, 0x8f, 0x25, 0xed, 0xbd, 0x1f, 0x4a, 0xf7, 0x3c,
  0x95, 0x7c, 0xa6, 0xbe, 0xd1, 0x7a, 0xb6, 0x3e, 0x0c, 0xc7, 0x1a, 0x3e,
  0xbe, 0xa1, 0x40, 0x39, 0xbc, 0x75, 0xa5, 0x3e, 0x18, 0x7e, 0x84, 0x3d,
  0xc8, 0x49, 0xa6, 0x3e, 0xa7, 0x6e, 0xa2, 0xbe, 0x55, 0x9f, 0x86, 0x3e,
  0x84, 0xd8, 0x93, 0x3e, 0xe1, 0xe0, 0xed, 0x3d, 0x77, 0x88, 0x84, 0xbe,
  0x3a, 0x66, 0x95, 0xbe, 0x4d, 0x27, 0x84, 0xbe, 0x49, 0xf7, 0x6a, 0x3e,
  0x5a, 0xae, 0x9d, 0xbe, 0x8e, 0xb3, 0x3d, 0xbe, 0x68, 0x52, 0xc1, 0x3e,
  0x72, 0xa3, 0xe1, 0xbd, 0xae, 0xcf, 0xb9, 0x3d, 0x67, 0xac, 0x17, 0x3e,
  0x51, 0xed, 0x4e, 0x3c, 0xd5, 0xa9, 0x8c, 0xbe, 0x33, 0x01, 0x80, 0x3e,
  0x26, 0xc3, 0x23, 0x3e, 0x2d, 0xda, 0x09, 0xbf, 0x1a, 0xe2, 0xec, 0x3d,
  0x98, 0xb9, 0x7d, 0x3d, 0x48, 0xd8, 0x23, 0x3e, 0xd8, 0x3b, 0x20, 0x3e,
  0x69, 0xfe, 0x47, 0xbe, 0xae, 0xd9, 0x8e, 0x3e, 0x6a, 0xe1, 0x82, 0xbe,
  0x33, 0x04, 0xdd, 0x3d, 0x0a, 0x7a, 0x5c, 0x3e, 0xef, 0x34, 0x88, 0xbc,
  0x18, 0x59, 0x33, 0x3c, 0x69, 0x60, 0x08, 0x3e, 0x36, 0x99, 0xe1, 0xbe,
  0x1b, 0x5f, 0x40, 0x3e, 0x65, 0x03, 0xc4, 0x3d, 0xc3, 0xc3, 0xcb, 0xbd,
  0x67, 0x2a, 0x8a, 0x3d, 0xad, 0x17, 0x55, 0xbd, 0x8c, 0xc8, 0x9d, 0x3e,
  0xe5, 0xfa, 0xf6, 0xbd, 0x5c, 0x92, 0x09, 0x3e, 0xc3, 0x8e, 0x5f, 0xbe,
  0x55, 0xf2, 0xb7, 0xbe, 0x66, 0x7d, 0xb9, 0xbc, 0xef, 0xd6, 0x4b, 0xbe,
  0xe0, 0x87, 0x69, 0xbe, 0xd8, 0x44, 0x9f, 0x3c, 0x45, 0xf4, 0x17, 0xbe,
  0x3d, 0x6d, 0xdc, 0x3d, 0x1d, 0x66, 0xca, 0x3e, 0x81, 0x1c, 0xca, 0xbd,
  0x02, 0xca, 0xdf, 0xbd, 0x63, 0x88, 0x98, 0xbe, 0x99, 0x3a, 0x1e, 0xbd,
  0x2b, 0xdb, 0x76, 0xbd, 0x5d, 0xa1, 0xd0, 0x3e, 0xa7, 0xf1, 0x1a, 0x3e,
  0x95, 0xfe, 0x9e, 0x3e, 0x70, 0xc8, 0x61, 0x3c, 0x2d, 0xba, 0x5c, 0x3d,
  0x0a, 0xf7, 0xff, 0xff, 0x04, 0x00, 0x00, 0x00, 0x80, 0x00, 0x00, 0x00,
  0x19, 0xdd, 0xbe, 0x3d, 0xd7, 0xf1, 0x14, 0xbd, 0x6a, 0xb8, 0x65, 0x3d,
  0x68, 0x87, 0x99, 0x3c, 0x50, 0x20, 0x16, 0xbd, 0xe3, 0x11, 0x76, 0xbd,
  0xe7, 0x55, 0xf8, 0xbc, 0x60, 0x6a, 0x12, 0x3e, 0x36, 0x1a, 0xa5, 0xbc,
  0x1c, 0x77, 0xa1, 0x3d, 0x2d, 0xe3, 0x54, 0xbd, 0x85, 0x39, 0x7a, 0x3d,
  0x81, 0xa3, 0x85, 0x3d, 0xe5, 0x86, 0xa8, 0xbc, 0x2b, 0xf8, 0x4e, 0xbd,
  0xca, 0xd5, 0x04, 0xbc, 0x20, 0x1f, 0x6e, 0xbc, 0xff, 0xee, 0x74, 0x3a,
  0xf7, 0x6f, 0x7b, 0x3d, 0xf6, 0x03, 0x05, 0x3e, 0x90, 0xf7, 0x38, 0xbd,
  0x6e, 0x80, 0xbe, 0xbd, 0xf6, 0x49, 0x63, 0x3c, 0x26, 0x53, 0x34, 0x3d,
  0x54, 0x2d, 0x19, 0x3c, 0x0c, 0x10, 0x61, 0xbc, 0x01, 0x1f, 0x2d, 0x3d,
  0x79, 0xa0, 0x53, 0xbc, 0xcf, 0x35, 0x20, 0x3d, 0x12, 0x15, 0x93, 0xbd,
  0x5a, 0x63, 0x23, 0xbc, 0x4f, 0xa4, 0x6b, 0x3c, 0x96, 0xf7, 0xff, 0xff,
  0x04, 0x00, 0x00, 0x00, 0x40, 0x00, 0x00, 0x00, 0x72, 0x4e, 0xcf, 0xbb,
  0xd9, 0x50, 0x05, 0xbd, 0xc9, 0x06, 0x56, 0xbd, 0xed, 0xb9, 0x3a, 0x3d,
  0xa4, 0xaa, 0x16, 0xbd, 0x43, 0x8a, 0xdd, 0xbc, 0xca, 0x1a, 0x9c, 0xbd,
  0x8f, 0x62, 0x9d, 0xbc, 0x68, 0x26, 0xaa, 0xbd, 0x05, 0xca, 0xde, 0xbc,
  0x03, 0x0a, 0xd5, 0x3d, 0x01, 0x7c, 0xae, 0x3d, 0x91, 0xa9, 0x9d, 0x3d,
  0x9f, 0x48, 0xc6, 0xbd, 0x8c, 0xb1, 0x02, 0x3e, 0x31, 0x38, 0xc4, 0xbd,
  0xe2, 0xf7, 0xff, 0xff, 0x04, 0x00, 0x00, 0x00, 0x04, 0x00, 0x00, 0x00,
  0x70, 0xd0, 0xd3, 0xbd, 0xf2, 0xf7, 0xff, 0xff, 0x04, 0x00, 0x00, 0x00,
  0x00, 0x08, 0x00, 0x00, 0x94, 0x60, 0xaf, 0x3e, 0x6a, 0x15, 0xaf, 0xbd,
  0x8b, 0x32, 0xee, 0x3d, 0xa4, 0xd0, 0xa6, 0x3e, 0xb0, 0xf1, 0x90, 0x3e,
  0x18, 0xa0, 0x13, 0xbe, 0x0a, 0x30, 0x7a, 0x3e, 0xc9, 0x22, 0x25, 0x3e,
  0xe8, 0xab, 0xdc, 0xbd, 0x30, 0x98, 0xe4, 0xbc, 0x6a, 0xdb, 0x35, 0x3e,
  0xd7, 0x72, 0x8d, 0xbe, 0xbc, 0xd0, 0x80, 0xbd, 0x5c, 0x14, 0x67, 0x3d,
  0x91, 0x54, 0x46, 0xbe, 0xbb, 0xc0, 0x96, 0x3e, 0x7c, 0x62, 0x83, 0xbe,
  0x70, 0xd8, 0xc6, 0x3d, 0x8e, 0x83, 0x32, 0xbe, 0x85, 0xfb, 0xa7, 0xbe,
  0x33, 0xcc, 0xeb, 0xbd, 0xf5, 0x4d, 0xa0, 0xbe, 0x55, 0x12, 0xa3, 0x3d,
  0xc7, 0xdd, 0xcd, 0x3e, 0x97, 0x5e, 0x6f, 0x3e, 0x0d, 0x62, 0x85, 0x3e,
  0xdb, 0xfb, 0x97, 0xbd, 0xaa, 0xe0, 0x86, 0xbe, 0xbf, 0x9e, 0xcc, 0xbd,
  0x5e, 0xb5, 0x2c, 0xbe, 0x00, 0x06, 0x87, 0xbe, 0x62, 0xda, 0x85, 0xbe,
  0xbd, 0x4c, 0x29, 0x3e, 0xee, 0x52, 0x41, 0xbd, 0xd5, 0x7c, 0x9f, 0xbe,
  0x24, 0x3f, 0xd7, 0x3e, 0x1e, 0x11, 0xe1, 0x3d, 0xe8, 0xbf, 0x3e, 0xbd,
  0x60, 0xf0, 0x10, 0x3e, 0x7b, 0x74, 0x4a, 0xbe, 0x28, 0x99, 0xa4, 0xbe,
  0xf6, 0x2f, 0x73, 0xbe, 0xe3, 0x1a, 0x79, 0x3e, 0x68, 0x47, 0x59, 0x3e,
  0x02, 0x25, 0x02, 0xbe, 0xe2, 0x28, 0x2c, 0x3d, 0x01, 0xaf, 0xa4, 0xbe,
  0x2f, 0x6d, 0x03, 0xbe, 0xe4, 0x4c, 0xbc, 0x3c, 0xf1, 0x77, 0xa8, 0x3e,
  0x24, 0x61, 0x99, 0xbc, 0x44, 0xe0, 0xb9, 0x3d, 0x40, 0x86, 0x77, 0xbd,
  0xda, 0xd5, 0x80, 0x3e, 0xc7, 0x35, 0x0e, 0xbd, 0x80, 0x2c, 0xaa, 0x3e,
  0x98, 0xcf, 0x4b, 0xbd, 0x67, 0xba, 0x36, 0x3e, 0xd3, 0xbf, 0xb5, 0x3e,
  0x18, 0x67, 0x39, 0x3d, 0x0e, 0x4f, 0x65, 0xbe, 0x44, 0xa3, 0xa5, 0x3e,
  0xf7, 0xcc, 0x75, 0x3e, 0x7b, 0x09, 0xa2, 0x3e, 0x3b, 0xde, 0xa6, 0x3e,
  0x02, 0x27, 0x84, 0x3e, 0xc0, 0x54, 0x94, 0xbe, 0x6a, 0xb4, 0x8b, 0x3e,
  0x11, 0x5f, 0x75, 0x3e, 0x8f, 0x6b, 0x11, 0xbe, 0x93, 0xb8, 0x5f, 0x3e,
  0x8f, 0x93, 0xb0, 0xbe, 0x34, 0xfe, 0x8c, 0x3d, 0xb4, 0x14, 0xf5, 0xbd,
  0x3b, 0xa1, 0x56, 0x3d, 0x7e, 0x9e, 0x46, 0x3e, 0x33, 0x2a, 0x91, 0x3e,
  0xe0, 0xb9, 0x51, 0x3d, 0x16, 0x31, 0x83, 0x3e, 0x28, 0xdc, 0x64, 0xbd,
  0xf4, 0xdb, 0xaf, 0x3d, 0xcf, 0x2b, 0x82, 0x3e, 0x77, 0x17, 0x19, 0x3e,
  0x02, 0xc5, 0x38, 0x3e, 0x2c, 0x64, 0x8b, 0x3e, 0x89, 0x0a, 0x50, 0x3e,
  0x5e, 0x43, 0x9f, 0xbe, 0x8d, 0xa4, 0x1f, 0x3e, 0xda, 0xd4, 0x98, 0x3b,
  0x04, 0x4f, 0x56, 0xbe, 0x02, 0x32, 0x8d, 0x3d, 0xa7, 0x1f, 0xf2, 0xbd,
  0xf1, 0xa8, 0xb2, 0xbe, 0xb3, 0x15, 0x0f, 0xbe, 0x3d, 0x9f, 0x7a, 0xbe,
  0x46, 0x96, 0xbc, 0xbe, 0x81, 0xf2, 0x93, 0xbb, 0xa5, 0xb0, 0x8e, 0xbe,
  0x4e, 0x00, 0x02, 0xbe, 0x6b, 0x72, 0x24, 0x3e, 0x82, 0x45, 0x26, 0x3e,
  0xe7, 0x9f, 0x85, 0xbe, 0x8e, 0xcb, 0x1c, 0xbd, 0x22, 0x78, 0xa8, 0xbd,
  0x35, 0x68, 0xc2, 0xbd, 0xf2, 0x8c, 0x67, 0x3e, 0xc9, 0x80, 0x88, 0x3c,
  0xef, 0xa8, 0x98, 0x3e, 0x5c, 0x4e, 0xa7, 0x3e, 0x16, 0x4e, 0x89, 0xbd,
  0xa3, 0x5d, 0x86, 0x3e, 0x39, 0xcc, 0xd0, 0x3d, 0x38, 0x71, 0xd1, 0xbd,
  0x2a, 0x15, 0x3f, 0x3e, 0xeb, 0x5d, 0x90, 0x3e, 0x8d, 0x9b, 0xac, 0x3e,
  0x84, 0x2d, 0x40, 0xbe, 0xe7, 0xc3, 0xc2, 0x3d, 0x35, 0x28, 0x6e, 0xbe,
  0x4b, 0x97, 0x44, 0xbc, 0x0f, 0x3a, 0x36, 0x3e, 0xb3, 0x15, 0x8f, 0xbe,
  0x57, 0xf8, 0x19, 0xbe, 0x6e, 0xa3, 0x3e, 0x3d, 0x38, 0x08, 0x04, 0x3e,
  0x4f, 0xac, 0x43, 0x3d, 0x6b, 0x60, 0x7b, 0x3d, 0xea, 0x96, 0xa5, 0x3e,
  0x90, 0x40, 0x2d, 0xbe, 0xe1, 0x9d, 0x0c, 0x3e, 0x20, 0xda, 0x7c, 0xbe,
  0x4a, 0x82, 0xba, 0xbc, 0x30, 0xef, 0xe5, 0xbd, 0x5c, 0xeb, 0x06, 0x3e,
  0xc4, 0xd5, 0x6c, 0xbe, 0x31, 0x39, 0x95, 0x3e, 0x65, 0x6e, 0x1d, 0xbe,
  0x9c, 0x9a, 0x8e, 0xbe, 0xcd, 0xd1, 0x1c, 0xbd, 0x45, 0x87, 0x73, 0x3d,
  0x3a, 0x62, 0x14, 0x3e, 0x50, 0x48, 0x15, 0x3e, 0xca, 0x7f, 0x9b, 0xbe,
  0x51, 0x35, 0xa7, 0xbe, 0x09, 0xf9, 0xd3, 0x3d, 0x22, 0xc7, 0x87, 0x3e,
  0x8f, 0x8f, 0xc5, 0xbe, 0x33, 0x4e, 0x18, 0xbe, 0xa5, 0xbf, 0xb2, 0x3c,
  0x95, 0xa1, 0x83, 0xbe, 0xf2, 0x3d, 0xad, 0xbe, 0xd2, 0xde, 0x24, 0x3e,
  0xb5, 0x35, 0xe6, 0x3c, 0x40, 0x7f, 0x99, 0x3d, 0xad, 0x80, 0x7f, 0x3e,
  0x69, 0x79, 0x93, 0xbe, 0xac, 0x98, 0x21, 0xbe, 0x91, 0xdf, 0x17, 0xbe,
  0xaa, 0x53, 0x81, 0x3e, 0x68, 0x01, 0x1d, 0x3d, 0x9d, 0x43, 0xce, 0xbc,
  0xfc, 0x75, 0x8e, 0x3e, 0xc5, 0x4a, 0x61, 0x3e, 0xb8, 0xf6, 0x65, 0x3e,
  0x5d, 0x22, 0x1d, 0xbe, 0xec, 0x9a, 0xbb, 0xbe, 0x4f, 0x2c, 0x9c, 0x3e,
  0x71, 0x27, 0xed, 0x3c, 0xd2, 0x5e, 0x63, 0xbe, 0x92, 0x8b, 0xa9, 0xbd,
  0x65, 0x5d, 0x90, 0x3e, 0x7d, 0xba, 0x52, 0xbd, 0x96, 0x5b, 0x97, 0x3d,
  0x49, 0x56, 0x8d, 0xbe, 0xc6, 0xfc, 0xa4, 0xbe, 0x30, 0xd0, 0x4b, 0x3e,
  0x75, 0x3f, 0xd2, 0x3d, 0x9f, 0xaf, 0x49, 0x3d, 0xe2, 0x7f, 0x2a, 0xbe,
  0x18, 0x89, 0xb0, 0xbe, 0xcb, 0xdd, 0x90, 0xbe, 0xe4, 0x08, 0x56, 0x3e,
  0xb1, 0xd7, 0x5e, 0x3e, 0x70, 0xab, 0x8a, 0x3e, 0xc9, 0x56, 0x8d, 0xbe,
  0x36, 0xf6, 0xff, 0xbd, 0xd2, 0x85, 0x28, 0x3e, 0xe4, 0xbb, 0x2f, 0xbe,
  0x48, 0x37, 0xdf, 0x3d, 0xc7, 0xb2, 0xc5, 0xbe, 0xe3, 0x71, 0x0e, 0xbe,
  0x77, 0x11, 0x9d, 0x3e, 0xa1, 0x96, 0xcf, 0xbe, 0xb7, 0x0b, 0x9d, 0x3e,
  0x74, 0xa7, 0x7c, 0x3d, 0x33, 0x74, 0x51, 0xbe, 0x64, 0x84, 0x73, 0x3d,
  0xe0, 0x2b, 0xc1, 0x3d, 0x98, 0x86, 0x49, 0x3e, 0x22, 0x5b, 0xab, 0xbe,
  0x26, 0x5e, 0x95, 0x3e, 0xdf, 0x4b, 0x6b, 0xbd, 0x07, 0x38, 0x8f, 0x3e,
  0xb9, 0x3d, 0xeb, 0xbe, 0x0f, 0x12, 0x7d, 0xbe, 0xa9, 0xf4, 0x8a, 0x3e,
  0xfd, 0x6d, 0xb4, 0x3e, 0xfd, 0xec, 0x55, 0xbe, 0x22, 0xc3, 0xff, 0xbd,
  0x3a, 0xdb, 0xda, 0xbc, 0xb2, 0x6b, 0x2d, 0xbd, 0x78, 0x26, 0x89, 0x3d,
  0x8e, 0xfd, 0x94, 0x3e, 0xb6, 0xce, 0x85, 0x3d, 0xd5, 0x41, 0x8d, 0xbe,
  0xf6, 0x91, 0x99, 0x3d, 0xe7, 0x27, 0xdb, 0x3c, 0x38, 0x65, 0x06, 0xbd,
  0x26, 0x9b, 0x97, 0xbe, 0xce, 0xe5, 0x33, 0xbc, 0x9f, 0x88, 0x18, 0xbe,
  0x0a, 0xda, 0x49, 0xbe, 0x9f, 0xad, 0x81, 0xbe, 0x11, 0x46, 0x33, 0x3e,
  0x3c, 0x6d, 0x0b, 0xbe, 0x69, 0x52, 0x08, 0xbe, 0x5e, 0xad, 0x12, 0xbe,
  0x36, 0x2a, 0x90, 0xbe, 0xd8, 0x86, 0x63, 0xbe, 0x04, 0xc7, 0x98, 0x3e,
  0x2f, 0x89, 0xd7, 0x3d, 0xfc, 0x65, 0xce, 0x3d, 0x40, 0x19, 0x2f, 0xbc,
  0xad, 0xea, 0xdd, 0x3d, 0xe8, 0xbe, 0xcd, 0xbc, 0xa3, 0xdc, 0x32, 0x3e,
  0xcf, 0x7f, 0xce, 0xbd, 0x17, 0x4d, 0x96, 0x3e, 0xe6, 0x40, 0x32, 0xbe,
  0xc6, 0x7c, 0x26, 0xbe, 0xd4, 0xd5, 0xc8, 0xbd, 0xcc, 0x16, 0x2e, 0xbe,
  0xd6, 0xa3, 0x7c, 0xbe, 0x50, 0xc2, 0x81, 0xbe, 0x38, 0x86, 0x2b, 0x3e,
  0x9d, 0x3a, 0xd4, 0xbd, 0xfa, 0xc0, 0x7a, 0xbc, 0x42, 0xf6, 0xef, 0xbd,
  0x20, 0x2d, 0x99, 0xbe, 0x89, 0x6d, 0xb3, 0xbd, 0x2f, 0x58, 0xa1, 0xbe,
  0x41, 0xf8, 0x3c, 0x3e, 0x99, 0x50, 0x1b, 0xbc, 0x52, 0xe3, 0x1e, 0x3e,
  0x2e, 0x6f, 0x0d, 0xbe, 0xf9, 0xab, 0x3f, 0xbe, 0xdf, 0x82, 0xb7, 0xbe,
  0x5c, 0x49, 0x5b, 0xbe, 0xb0, 0x11, 0xb8, 0x3d, 0x0b, 0xfa, 0x91, 0x3e,
  0xf8, 0xc8, 0x87, 0x3e, 0xf4, 0xc8, 0x36, 0x3e, 0x61, 0xe3, 0x62, 0x3e,
  0xb1, 0xcc, 0x69, 0x3e, 0x1a, 0xce, 0xad, 0x3c, 0x2c, 0x04, 0x96, 0x3e,
  0x76, 0xbe, 0x0d, 0xbe, 0x6b, 0x24, 0x29, 0xbe, 0x1f, 0xc8, 0x8a, 0xbe,
  0x83, 0xec, 0x0d, 0x3e, 0x45, 0xd3, 0x0f, 0x3e, 0xb2, 0x00, 0xce, 0xbd,
  0x35, 0xd7, 0xa2, 0xbd, 0xb6, 0xa1, 0xda, 0x3d, 0xba, 0xcd, 0xc4, 0xbe,
  0x4d, 0xc4, 0xd8, 0xbd, 0x89, 0xd7, 0x17, 0x3e, 0x10, 0xe5, 0x01, 0x3e,
  0xc8, 0x5d, 0x77, 0xbe, 0x79, 0x27, 0x2c, 0x3e, 0x16, 0x35, 0xf2, 0x3d,
  0xc7, 0xf7, 0xb2, 0xbc, 0x23, 0x63, 0x3f, 0x3c, 0xee, 0x31, 0x95, 0x3c,
  0x20, 0x20, 0x14, 0x3e, 0xd6, 0xcd, 0x8a, 0x3e, 0xa9, 0xf0, 0xa7, 0x3e,
  0x63, 0xb3, 0x83, 0x3e, 0x1f, 0xb9, 0x8f, 0xbe, 0xe9, 0x64, 0x29, 0x3e,
  0xd3, 0x43, 0x46, 0xbe, 0x6f, 0xc9, 0x51, 0x3e, 0xda, 0xe0, 0x13, 0xbe,
  0x16, 0xa1, 0x82, 0xbe, 0xe8, 0x94, 0x5d, 0x3d, 0xcc, 0x3b, 0x0b, 0xbe,
  0x37, 0xbf, 0x42, 0x3d, 0xd4, 0xcd, 0xa0, 0xbd, 0x43, 0x2d, 0x34, 0xbe,
  0x5e, 0xf9, 0x9c, 0x3e, 0x35, 0xec, 0x63, 0xbd, 0x20, 0x20, 0x5e, 0xbd,
  0xd0, 0x76, 0x20, 0xbe, 0xf4, 0x02, 0xd1, 0x3d, 0x19, 0x2b, 0xc1, 0x3d,
  0x58, 0x3a, 0x02, 0x3e, 0xd0, 0x43, 0xa2, 0xbe, 0xdd, 0x03, 0xbc, 0xbd,
  0x76, 0xb6, 0x1b, 0x3e, 0xca, 0x88, 0x7c, 0x3e, 0xfb, 0xcf, 0x5f, 0xbe,
  0x6a, 0x52, 0xf9, 0x3d, 0x06, 0xf1, 0x87, 0x3e, 0x07, 0xa1, 0x9b, 0x3d,
  0x90, 0x06, 0x50, 0xbc, 0xd6, 0x8d, 0x64, 0xbe, 0x2a, 0x26, 0x2c, 0xbe,
  0x71, 0xe6, 0x9c, 0xbe, 0x56, 0x8f, 0x7e, 0xbe, 0x48, 0xbe, 0x80, 0xbe,
  0x57, 0x5d, 0xda, 0x3e, 0x6f, 0xf7, 0xf1, 0xbd, 0x47, 0xbd, 0x8c, 0x3e,
  0x50, 0x9d, 0x27, 0xbd, 0xba, 0x35, 0x3d, 0x3e, 0x79, 0x4e, 0x11, 0x3e,
  0x7c, 0x68, 0x15, 0x3c, 0xa4, 0x4a, 0xdd, 0x3e, 0x88, 0xd7, 0x65, 0xbe,
  0x5d, 0x86, 0x05, 0x3e, 0xb6, 0x00, 0x0b, 0xbc, 0x1e, 0x71, 0x7e, 0x3e,
  0xc5, 0xd0, 0x84, 0xbe, 0x47, 0x15, 0x0b, 0x3e, 0x8d, 0x16, 0xa7, 0x3e,
  0x1a, 0x60, 0xf6, 0xbd, 0x71, 0xce, 0xc8, 0xbe, 0x79, 0x76, 0x39, 0xbe,
  0x8a, 0xa4, 0x51, 0xbe, 0xf5, 0x84, 0xf0, 0x3d, 0x9c, 0xf0, 0xb3, 0x3d,
  0xe7, 0x10, 0x52, 0x3e, 0xd9, 0x56, 0x06, 0xbd, 0x56, 0xc1, 0x9b, 0xbe,
  0x7a, 0xd1, 0x9b, 0x3e, 0x32, 0xeb, 0xbb, 0x3e, 0xa1, 0xa6, 0xc5, 0x3d,
  0xe1, 0x36, 0x48, 0xbb, 0x93, 0x77, 0x97, 0x3e, 0x2f, 0x77, 0x46, 0xbe,
  0xbf, 0xcb, 0x60, 0x3e, 0x6f, 0xd4, 0x30, 0xbd, 0xee, 0x31, 0xf0, 0xbd,
  0xde, 0xe8, 0x87, 0xbe, 0xf9, 0x78, 0xa3, 0xbc, 0xa2, 0x42, 0x72, 0xbe,
  0x4b, 0xf7, 0x0c, 0xbe, 0x42, 0xbb, 0x75, 0x3d, 0x48, 0x0f, 0x09, 0x3d,
  0x61, 0x65, 0x2d, 0xbe, 0x38, 0x1f, 0xb9, 0x3d, 0xaa, 0xfc, 0xd2, 0x3d,
  0x93, 0x82, 0x8f, 0xbd, 0xe3, 0x54, 0xa1, 0x3e, 0x55, 0xc1, 0x1e, 0x3e,
  0x96, 0xcf, 0x02, 0x3e, 0xd2, 0x99, 0xa0, 0xbd, 0xea, 0x14, 0xc5, 0x39,
  0x13, 0xbf, 0x8b, 0xbe, 0xdc, 0xb9, 0xa3, 0xbe, 0x93, 0x07, 0x39, 0xbd,
  0x22, 0x68, 0x07, 0x3e, 0xd8, 0x1c, 0x46, 0xbe, 0xd3, 0xd2, 0xd9, 0x3d,
  0x96, 0xce, 0x10, 0x3c, 0xb0, 0xd4, 0x9b, 0xbe, 0x9c, 0x54, 0xce, 0x3d,
  0x80, 0xd9, 0xde, 0x3c, 0x2c, 0x99, 0xac, 0xbd, 0x6a, 0xc5, 0x5d, 0xbe,
  0xfc, 0x06, 0x10, 0xbe, 0x6c, 0x08, 0x82, 0x3e, 0xa9, 0x36, 0xbd, 0x3d,
  0xd1, 0xe5, 0x0d, 0x3e, 0x81, 0x03, 0x42, 0x3d, 0xa8, 0x1d, 0xc7, 0xbe,
  0xbc, 0xca, 0x9d, 0xbe, 0xad, 0xb1, 0x82, 0x3e, 0x75, 0x08, 0xa4, 0x3e,
  0x71, 0xc2, 0x6a, 0x3d, 0xcd, 0xdb, 0x41, 0xbb, 0x28, 0x49, 0x80, 0xbe,
  0xaa, 0x28, 0x5f, 0xbe, 0x4f, 0xe8, 0x8e, 0x3d, 0x0b, 0x93, 0x77, 0xbe,
  0xcb, 0x50, 0x34, 0x3e, 0x66, 0x09, 0x9f, 0x3e, 0x58, 0x2a, 0x9c, 0xbe,
  0x03, 0x94, 0xd7, 0xbd, 0xf8, 0x54, 0x90, 0x3c, 0x1f, 0x23, 0x7b, 0x3e,
  0x64, 0xdf, 0x34, 0x3d, 0x66, 0xa9, 0xe7, 0x3c, 0x2b, 0x7c, 0xc0, 0x3e,
  0xbd, 0xd0, 0x40, 0xbc, 0x41, 0x5d, 0xf3, 0x3c, 0xee, 0x3d, 0x71, 0xbe,
  0xae, 0xeb, 0x67, 0x3e, 0x78, 0x88, 0x11, 0x3e, 0xe6, 0x68, 0x41, 0xbe,
  0x8b, 0x1c, 0xa6, 0xbe, 0x48, 0xab, 0x31, 0xbe, 0x26, 0x6c, 0x88, 0x3e,
  0x4d, 0x8d, 0xc7, 0x3d, 0xb2, 0x91, 0xa5, 0xbe, 0xea, 0x93, 0xa0, 0xbd,
  0x3d, 0x26, 0xcc, 0xbe, 0xcc, 0x5d, 0x7b, 0xbe, 0xab, 0x52, 0x47, 0x3e,
  0x24, 0xef, 0xdc, 0xbd, 0x27, 0x9e, 0x1a, 0xbd, 0xdf, 0x6b, 0xa3, 0x3e,
  0x8d, 0xc5, 0x17, 0xbe, 0x70, 0x3f, 0x48, 0xbb, 0x5a, 0xe0, 0x1a, 0x3e,
  0xb4, 0x06, 0x11, 0x3e, 0x05, 0xa6, 0x94, 0x3e, 0x51, 0xae, 0xb5, 0xbd,
  0x3c, 0xae, 0x46, 0xbe, 0x30, 0xdf, 0x70, 0x3e, 0xb8, 0xb3, 0xb3, 0xbd,
  0xc5, 0x53, 0xa0, 0x3d, 0x08, 0x54, 0xdc, 0xbc, 0x1c, 0xca, 0x3a, 0x3e,
  0x9a, 0xd2, 0xfc, 0x3d, 0x9e, 0x1d, 0xd7, 0xbe, 0xa4, 0x9a, 0xca, 0x3d,
  0xfd, 0x3f, 0x6c, 0x3e, 0xf2, 0xde, 0x62, 0x3e, 0x71, 0x83, 0x75, 0xbe,
  0x17, 0x14, 0xc9, 0x3d, 0x5d, 0xc9, 0x33, 0x3e, 0xdc, 0x9d, 0x81, 0x3d,
  0xf0, 0x65, 0x8c, 0xbe, 0x44, 0x9d, 0xad, 0xbe, 0xa8, 0x4d, 0x07, 0xbe,
  0x7e, 0x60, 0xa0, 0x3e, 0x99, 0x30, 0xde, 0x3d, 0xda, 0xeb, 0x9a, 0x3d,
  0x03, 0xb8, 0x1a, 0xbe, 0xf5, 0x3e, 0xac, 0x3e, 0xa9, 0x56, 0x79, 0xbe,
  0x97, 0x65, 0x96, 0xbe, 0xf6, 0x96, 0x12, 0xbe, 0xf6, 0x4b, 0xc6, 0x3e,
  0x03, 0x5c, 0xa3, 0x3e, 0xc8, 0xeb, 0x96, 0x3e, 0xf6, 0x5e, 0x8e, 0xbe,
  0x32, 0x15, 0xb1, 0xbc, 0x69, 0x50, 0x85, 0xbe, 0x4f, 0xea, 0xad, 0x3a,
  0x11, 0xc0, 0x54, 0xbe, 0xfd, 0xa0, 0xc2, 0xbe, 0xe6, 0x23, 0x26, 0xbe,
  0x7b, 0x28, 0xb1, 0xbe, 0xa8, 0xaa, 0x69, 0xbd, 0xac, 0xad, 0x96, 0x3e,
  0x7e, 0xca, 0xee, 0x3d, 0x78, 0x9e, 0x2b, 0x3e, 0x55, 0x2c, 0x4d, 0xbd,
  0x1f, 0x20, 0xbe, 0x3b, 0x05, 0x1c, 0x9e, 0x3e, 0x82, 0x39, 0x21, 0xbd,
  0x67, 0x7e, 0x9b, 0xbe, 0xe0, 0xd0, 0x6c, 0xbc, 0xc0, 0x91, 0x81, 0x3d,
  0x32, 0x7c, 0xe3, 0x3d, 0x72, 0xb4, 0x6a, 0xbe, 0x56, 0x1a, 0xeb, 0xbd,
  0x8d, 0xf5, 0x96, 0xbe, 0x76, 0xc7, 0x3d, 0x3d, 0x3d, 0x2b, 0x04, 0x3e,
  0x0f, 0xf8, 0x8a, 0xbd, 0xb2, 0xe1, 0x8c, 0xbe, 0x39, 0x4c, 0xc8, 0x3d,
  0xf7, 0x20, 0x9b, 0xbe, 0xbd, 0x93, 0x14, 0x3e, 0xef, 0xc3, 0xb3, 0xbe,
  0xcf, 0x0b, 0x10, 0x3e, 0xdb, 0xa0, 0x6d, 0xbe, 0xb5, 0x1e, 0xf4, 0x3d,
  0x2b, 0x0f, 0x12, 0x3e, 0x83, 0x9f, 0x0c, 0x3d, 0x30, 0x6c, 0x21, 0x3d,
  0x43, 0x24, 0x37, 0xbd, 0xe1, 0xe5, 0x96, 0x3d, 0x55, 0xa3, 0x71, 0xbe,
  0x3c, 0x75, 0xf4, 0xbb, 0x73, 0x56, 0x81, 0x3d, 0x22, 0x31, 0x5f, 0xbe,
  0xf8, 0xb5, 0x97, 0xbe, 0x25, 0xcd, 0xd6, 0x3d, 0x3b, 0x10, 0x5f, 0xbe,
  0x29, 0x3e, 0xeb, 0xbd, 0x40, 0x2e, 0x9d, 0x3e, 0x2b, 0xb1, 0xa4, 0xbc,
  0x09, 0x74, 0x86, 0x3e, 0x55, 0xf0, 0x89, 0xbe, 0x4f, 0xf9, 0x8f, 0xbe,
  0xf4, 0x2c, 0x97, 0x3e, 0x2e, 0xdb, 0x00, 0xbc, 0x18, 0xd2, 0x3c, 0xbe,
  0x00, 0x00, 0x06, 0x00, 0x08, 0x00, 0x04, 0x00, 0x06, 0x00, 0x00, 0x00,
  0x04, 0x00, 0x00, 0x00, 0x40, 0x00, 0x00, 0x00, 0x3f, 0x3c, 0x50, 0x3e,
  0xba, 0x7e, 0xcd, 0x3e, 0xd2, 0xbc, 0x0d, 0x3f, 0xc3, 0x95, 0x0a, 0xbf,
  0x62, 0x4f, 0xc4, 0xbe, 0x5b, 0x36, 0x3f, 0x3e, 0x3c, 0xf4, 0x3e, 0x3d,
  0xc9, 0x00, 0xd6, 0x3e, 0x18, 0xd5, 0xfc, 0x3e, 0xc4, 0x49, 0x11, 0x3f,
  0xd2, 0x56, 0x4a, 0xbe, 0xd9, 0xc0, 0x2a, 0xbe, 0xb9, 0xe3, 0x8b, 0xbe,
  0x60, 0xc9, 0x84, 0x3e, 0xd1, 0xfd, 0xa1, 0xbe, 0xc8, 0xe0, 0xd5, 0x3e,
  0x84, 0xfa, 0xff, 0xff, 0x88, 0xfa, 0xff, 0xff, 0x0f, 0x00, 0x00, 0x00,
  0x4d, 0x4c, 0x49, 0x52, 0x20, 0x43, 0x6f, 0x6e, 0x76, 0x65, 0x72, 0x74,
  0x65, 0x64, 0x2e, 0x00, 0x01, 0x00, 0x00, 0x00, 0x14, 0x00, 0x00, 0x00,
  0x00, 0x00, 0x0e, 0x00, 0x18, 0x00, 0x14, 0x00, 0x10, 0x00, 0x0c, 0x00,
  0x08, 0x00, 0x04, 0x00, 0x0e, 0x00, 0x00, 0x00, 0x14, 0x00, 0x00, 0x00,
  0x1c, 0x00, 0x00, 0x00, 0x08, 0x01, 0x00, 0x00, 0x0c, 0x01, 0x00, 0x00,
  0x10, 0x01, 0x00, 0x00, 0x04, 0x00, 0x00, 0x00, 0x6d, 0x61, 0x69, 0x6e,
  0x00, 0x00, 0x00, 0x00, 0x04, 0x00, 0x00, 0x00, 0xb0, 0x00, 0x00, 0x00,
  0x68, 0x00, 0x00, 0x00, 0x34, 0x00, 0x00, 0x00, 0x10, 0x00, 0x00, 0x00,
  0x00, 0x00, 0x0a, 0x00, 0x10, 0x00, 0x0c, 0x00, 0x08, 0x00, 0x04, 0x00,
  0x0a, 0x00, 0x00, 0x00, 0x0c, 0x00, 0x00, 0x00, 0x10, 0x00, 0x00, 0x00,
  0x01, 0x00, 0x00, 0x00, 0x01, 0x00, 0x00, 0x00, 0x0a, 0x00, 0x00, 0x00,
  0x01, 0x00, 0x00, 0x00, 0x09, 0x00, 0x00, 0x00, 0x9a, 0xff, 0xff, 0xff,
  0x10, 0x00, 0x00, 0x00, 0x00, 0x00, 0x00, 0x08, 0x0c, 0x00, 0x00, 0x00,
  0x10, 0x00, 0x00, 0x00, 0x30, 0xfb, 0xff, 0xff, 0x01, 0x00, 0x00, 0x00,
  0x09, 0x00, 0x00, 0x00, 0x03, 0x00, 0x00, 0x00, 0x08, 0x00, 0x00, 0x00,
  0x01, 0x00, 0x00, 0x00, 0x03, 0x00, 0x00, 0x00, 0xca, 0xff, 0xff, 0xff,
  0x10, 0x00, 0x00, 0x00, 0x00, 0x00, 0x00, 0x08, 0x10, 0x00, 0x00, 0x00,
  0x14, 0x00, 0x00, 0x00, 0xba, 0xff, 0xff, 0xff, 0x00, 0x00, 0x00, 0x01,
  0x01, 0x00, 0x00, 0x00, 0x08, 0x00, 0x00, 0x00, 0x03, 0x00, 0x00, 0x00,
  0x07, 0x00, 0x00, 0x00, 0x02, 0x00, 0x00, 0x00, 0x04, 0x00, 0x00, 0x00,
  0x00, 0x00, 0x0e, 0x00, 0x16, 0x00, 0x00, 0x00, 0x10, 0x00, 0x0c, 0x00,
  0x0b, 0x00, 0x04, 0x00, 0x0e, 0x00, 0x00, 0x00, 0x18, 0x00, 0x00, 0x00,
  0x00, 0x00, 0x00, 0x08, 0x18, 0x00, 0x00, 0x00, 0x1c, 0x00, 0x00, 0x00,
  0x00, 0x00, 0x06, 0x00, 0x08, 0x00, 0x07, 0x00, 0x06, 0x00, 0x00, 0x00,
  0x00, 0x00, 0x00, 0x01, 0x01, 0x00, 0x00, 0x00, 0x07, 0x00, 0x00, 0x00,
  0x03, 0x00, 0x00, 0x00, 0x00, 0x00, 0x00, 0x00, 0x06, 0x00, 0x00, 0x00,
  0x05, 0x00, 0x00, 0x00, 0x01, 0x00, 0x00, 0x00, 0x0a, 0x00, 0x00, 0x00,
  0x01, 0x00, 0x00, 0x00, 0x00, 0x00, 0x00, 0x00, 0x0b, 0x00, 0x00, 0x00,
  0xf8, 0x03, 0x00, 0x00, 0xa0, 0x03, 0x00, 0x00, 0x48, 0x03, 0x00, 0x00,
  0x0c, 0x03, 0x00, 0x00, 0xb0, 0x02, 0x00, 0x00, 0x58, 0x02, 0x00, 0x00,
  0x0c, 0x02, 0x00, 0x00, 0x78, 0x01, 0x00, 0x00, 0xdc, 0x00, 0x00, 0x00,
  0x60, 0x00, 0x00, 0x00, 0x04, 0x00, 0x00, 0x00, 0x4a, 0xfc, 0xff, 0xff,
  0x00, 0x00, 0x00, 0x01, 0x14, 0x00, 0x00, 0x00, 0x1c, 0x00, 0x00, 0x00,
  0x1c, 0x00, 0x00, 0x00, 0x0b, 0x00, 0x00, 0x00, 0x34, 0x00, 0x00, 0x00,
  0x02, 0x00, 0x00, 0x00, 0xff, 0xff, 0xff, 0xff, 0x01, 0x00, 0x00, 0x00,
  0x34, 0xfc, 0xff, 0xff, 0x1b, 0x00, 0x00, 0x00, 0x53, 0x74, 0x61, 0x74,
  0x65, 0x66, 0x75, 0x6c, 0x50, 0x61, 0x72, 0x74, 0x69, 0x74, 0x69, 0x6f,
  0x6e, 0x65, 0x64, 0x43, 0x61, 0x6c, 0x6c, 0x5f, 0x31, 0x3a, 0x30, 0x00,
  0x02, 0x00, 0x00, 0x00, 0x01, 0x00, 0x00, 0x00, 0x01, 0x00, 0x00, 0x00,
  0xa2, 0xfc, 0xff, 0xff, 0x00, 0x00, 0x00, 0x01, 0x14, 0x00, 0x00, 0x00,
  0x1c, 0x00, 0x00, 0x00, 0x1c, 0x00, 0x00, 0x00, 0x0a, 0x00, 0x00, 0x00,
  0x54, 0x00, 0x00, 0x00, 0x02, 0x00, 0x00, 0x00, 0xff, 0xff, 0xff, 0xff,
  0x01, 0x00, 0x00, 0x00, 0x8c, 0xfc, 0xff, 0xff, 0x38, 0x00, 0x00, 0x00,
  0x73, 0x65, 0x71, 0x75, 0x65, 0x6e, 0x74, 0x69, 0x61, 0x6c, 0x5f, 0x31,
  0x2f, 0x64, 0x65, 0x6e, 0x73, 0x65, 0x5f, 0x32, 0x5f, 0x31, 0x2f, 0x4d,
  0x61, 0x74, 0x4d, 0x75, 0x6c, 0x3b, 0x73, 0x65, 0x71, 0x75, 0x65, 0x6e,
  0x74, 0x69, 0x61, 0x6c, 0x5f, 0x31, 0x2f, 0x64, 0x65, 0x6e, 0x73, 0x65,
  0x5f, 0x32, 0x5f, 0x31, 0x2f, 0x41, 0x64, 0x64, 0x00, 0x00, 0x00, 0x00,
  0x02, 0x00, 0x00, 0x00, 0x01, 0x00, 0x00, 0x00, 0x01, 0x00, 0x00, 0x00,
  0x1a, 0xfd, 0xff, 0xff, 0x00, 0x00, 0x00, 0x01, 0x14, 0x00, 0x00, 0x00,
  0x1c, 0x00, 0x00, 0x00, 0x1c, 0x00, 0x00, 0x00, 0x09, 0x00, 0x00, 0x00,
  0x74, 0x00, 0x00, 0x00, 0x02, 0x00, 0x00, 0x00, 0xff, 0xff, 0xff, 0xff,
  0x10, 0x00, 0x00, 0x00, 0x04, 0xfd, 0xff, 0xff, 0x58, 0x00, 0x00, 0x00,
  0x73, 0x65, 0x71, 0x75, 0x65, 0x6e, 0x74, 0x69, 0x61, 0x6c, 0x5f, 0x31,
  0x2f, 0x64, 0x65, 0x6e, 0x73, 0x65, 0x5f, 0x31, 0x5f, 0x32, 0x2f, 0x4d,
  0x61, 0x74, 0x4d, 0x75, 0x6c, 0x3b, 0x73, 0x65, 0x71, 0x75, 0x65, 0x6e,
  0x74, 0x69, 0x61, 0x6c, 0x5f, 0x31, 0x2f, 0x64, 0x65, 0x6e, 0x73, 0x65,
  0x5f, 0x31, 0x5f, 0x32, 0x2f, 0x52, 0x65, 0x6c, 0x75, 0x3b, 0x73, 0x65,
  0x71, 0x75, 0x65, 0x6e, 0x74, 0x69, 0x61, 0x6c, 0x5f, 0x31, 0x2f, 0x64,
  0x65, 0x6e, 0x73, 0x65, 0x5f, 0x31, 0x5f, 0x32, 0x2f, 0x42, 0x69, 0x61,
  0x73, 0x41, 0x64, 0x64, 0x00, 0x00, 0x00, 0x00, 0x02, 0x00, 0x00, 0x00,
  0x01, 0x00, 0x00, 0x00, 0x10, 0x00, 0x00, 0x00, 0xb2, 0xfd, 0xff, 0xff,
  0x00, 0x00, 0x00, 0x01, 0x14, 0x00, 0x00, 0x00, 0x1c, 0x00, 0x00, 0x00,
  0x1c, 0x00, 0x00, 0x00, 0x08, 0x00, 0x00, 0x00, 0x6c, 0x00, 0x00, 0x00,
  0x02, 0x00, 0x00, 0x00, 0xff, 0xff, 0xff, 0xff, 0x20, 0x00, 0x00, 0x00,
  0x9c, 0xfd, 0xff, 0xff, 0x52, 0x00, 0x00, 0x00, 0x73, 0x65, 0x71, 0x75,
  0x65, 0x6e, 0x74, 0x69, 0x61, 0x6c, 0x5f, 0x31, 0x2f, 0x64, 0x65, 0x6e,
  0x73, 0x65, 0x5f, 0x31, 0x2f, 0x4d, 0x61, 0x74, 0x4d, 0x75, 0x6c, 0x3b,
  0x73, 0x65, 0x71, 0x75, 0x65, 0x6e, 0x74, 0x69, 0x61, 0x6c, 0x5f, 0x31,
  0x2f, 0x64, 0x65, 0x6e, 0x73, 0x65, 0x5f, 0x31, 0x2f, 0x52, 0x65, 0x6c,
  0x75, 0x3b, 0x73, 0x65, 0x71, 0x75, 0x65, 0x6e, 0x74, 0x69, 0x61, 0x6c,
  0x5f, 0x31, 0x2f, 0x64, 0x65, 0x6e, 0x73, 0x65, 0x5f, 0x31, 0x2f, 0x42,
  0x69, 0x61, 0x73, 0x41, 0x64, 0x64, 0x00, 0x00, 0x02, 0x00, 0x00, 0x00,
  0x01, 0x00, 0x00, 0x00, 0x20, 0x00, 0x00, 0x00, 0x96, 0xfe, 0xff, 0xff,
  0x00, 0x00, 0x00, 0x01, 0x10, 0x00, 0x00, 0x00, 0x10, 0x00, 0x00, 0x00,
  0x07, 0x00, 0x00, 0x00, 0x28, 0x00, 0x00, 0x00, 0x1c, 0xfe, 0xff, 0xff,
  0x1b, 0x00, 0x00, 0x00, 0x73, 0x65, 0x71, 0x75, 0x65, 0x6e, 0x74, 0x69,
  0x61, 0x6c, 0x5f, 0x31, 0x2f, 0x64, 0x65, 0x6e, 0x73, 0x65, 0x5f, 0x31,
  0x2f, 0x4d, 0x61, 0x74, 0x4d, 0x75, 0x6c, 0x00, 0x02, 0x00, 0x00, 0x00,
  0x20, 0x00, 0x00, 0x00, 0x09, 0x00, 0x00, 0x00, 0xde, 0xfe, 0xff, 0xff,
  0x00, 0x00, 0x00, 0x01, 0x10, 0x00, 0x00, 0x00, 0x10, 0x00, 0x00, 0x00,
  0x06, 0x00, 0x00, 0x00, 0x38, 0x00, 0x00, 0x00, 0x64, 0xfe, 0xff, 0xff,
  0x2b, 0x00, 0x00, 0x00, 0x73, 0x65, 0x71, 0x75, 0x65, 0x6e, 0x74, 0x69,
  0x61, 0x6c, 0x5f, 0x31, 0x2f, 0x64, 0x65, 0x6e, 0x73, 0x65, 0x5f, 0x31,
  0x2f, 0x42, 0x69, 0x61, 0x73, 0x41, 0x64, 0x64, 0x2f, 0x52, 0x65, 0x61,
  0x64, 0x56, 0x61, 0x72, 0x69, 0x61, 0x62, 0x6c, 0x65, 0x4f, 0x70, 0x00,
  0x01, 0x00, 0x00, 0x00, 0x20, 0x00, 0x00, 0x00, 0x32, 0xff, 0xff, 0xff,
  0x00, 0x00, 0x00, 0x01, 0x10, 0x00, 0x00, 0x00, 0x10, 0x00, 0x00, 0x00,
  0x05, 0x00, 0x00, 0x00, 0x3c, 0x00, 0x00, 0x00, 0xb8, 0xfe, 0xff, 0xff,
  0x2d, 0x00, 0x00, 0x00, 0x73, 0x65, 0x71, 0x75, 0x65, 0x6e, 0x74, 0x69,
  0x61, 0x6c, 0x5f, 0x31, 0x2f, 0x64, 0x65, 0x6e, 0x73, 0x65, 0x5f, 0x31,
  0x5f, 0x32, 0x2f, 0x42, 0x69, 0x61, 0x73, 0x41, 0x64, 0x64, 0x2f, 0x52,
  0x65, 0x61, 0x64, 0x56, 0x61, 0x72, 0x69, 0x61, 0x62, 0x6c, 0x65, 0x4f,
  0x70, 0x00, 0x00, 0x00, 0x01, 0x00, 0x00, 0x00, 0x10, 0x00, 0x00, 0x00,
  0x8a, 0xff, 0xff, 0xff, 0x00, 0x00, 0x00, 0x01, 0x10, 0x00, 0x00, 0x00,
  0x10, 0x00, 0x00, 0x00, 0x04, 0x00, 0x00, 0x00, 0x1c, 0x00, 0x00, 0x00,
  0x10, 0xff, 0xff, 0xff, 0x0f, 0x00, 0x00, 0x00, 0x61, 0x72, 0x69, 0x74,
  0x68, 0x2e, 0x63, 0x6f, 0x6e, 0x73, 0x74, 0x61, 0x6e, 0x74, 0x32, 0x00,
  0x01, 0x00, 0x00, 0x00, 0x01, 0x00, 0x00, 0x00, 0xc2, 0xff, 0xff, 0xff,
  0x00, 0x00, 0x00, 0x01, 0x10, 0x00, 0x00, 0x00, 0x10, 0x00, 0x00, 0x00,
  0x03, 0x00, 0x00, 0x00, 0x1c, 0x00, 0x00, 0x00, 0x48, 0xff, 0xff, 0xff,
  0x0f, 0x00, 0x00, 0x00, 0x61, 0x72, 0x69, 0x74, 0x68, 0x2e, 0x63, 0x6f,
  0x6e, 0x73, 0x74, 0x61, 0x6e, 0x74, 0x31, 0x00, 0x02, 0x00, 0x00, 0x00,
  0x10, 0x00, 0x00, 0x00, 0x20, 0x00, 0x00, 0x00, 0x00, 0x00, 0x16, 0x00,
  0x18, 0x00, 0x14, 0x00, 0x00, 0x00, 0x10, 0x00, 0x0c, 0x00, 0x08, 0x00,
  0x00, 0x00, 0x00, 0x00, 0x00, 0x00, 0x07, 0x00, 0x16, 0x00, 0x00, 0x00,
  0x00, 0x00, 0x00, 0x01, 0x10, 0x00, 0x00, 0x00, 0x10, 0x00, 0x00, 0x00,
  0x02, 0x00, 0x00, 0x00, 0x1c, 0x00, 0x00, 0x00, 0x9c, 0xff, 0xff, 0xff,
  0x0e, 0x00, 0x00, 0x00, 0x61, 0x72, 0x69, 0x74, 0x68, 0x2e, 0x63, 0x6f,
  0x6e, 0x73, 0x74, 0x61, 0x6e, 0x74, 0x00, 0x00, 0x02, 0x00, 0x00, 0x00,
  0x01, 0x00, 0x00, 0x00, 0x10, 0x00, 0x00, 0x00, 0x00, 0x00, 0x16, 0x00,
  0x1c, 0x00, 0x18, 0x00, 0x00, 0x00, 0x14, 0x00, 0x10, 0x00, 0x0c, 0x00,
  0x00, 0x00, 0x00, 0x00, 0x08, 0x00, 0x07, 0x00, 0x16, 0x00, 0x00, 0x00,
  0x00, 0x00, 0x00, 0x01, 0x14, 0x00, 0x00, 0x00, 0x20, 0x00, 0x00, 0x00,
  0x20, 0x00, 0x00, 0x00, 0x01, 0x00, 0x00, 0x00, 0x3c, 0x00, 0x00, 0x00,
  0x02, 0x00, 0x00, 0x00, 0xff, 0xff, 0xff, 0xff, 0x09, 0x00, 0x00, 0x00,
  0x04, 0x00, 0x04, 0x00, 0x04, 0x00, 0x00, 0x00, 0x1e, 0x00, 0x00, 0x00,
  0x73, 0x65, 0x72, 0x76, 0x69, 0x6e, 0x67, 0x5f, 0x64, 0x65, 0x66, 0x61,
  0x75, 0x6c, 0x74, 0x5f, 0x6b, 0x65, 0x72, 0x61, 0x73, 0x5f, 0x74, 0x65,
  0x6e, 0x73, 0x6f, 0x72, 0x3a, 0x30, 0x00, 0x00, 0x02, 0x00, 0x00, 0x00,
  0x01, 0x00, 0x00, 0x00, 0x09, 0x00, 0x00, 0x00, 0x02, 0x00, 0x00, 0x00,
  0x20, 0x00, 0x00, 0x00, 0x04, 0x00, 0x00, 0x00, 0xf4, 0xff, 0xff, 0xff,
  0x0e, 0x00, 0x00, 0x00, 0x00, 0x00, 0x00, 0x0e, 0x0c, 0x00, 0x0c, 0x00,
  0x0b, 0x00, 0x00, 0x00, 0x00, 0x00, 0x04, 0x00, 0x0c, 0x00, 0x00, 0x00,
  0x09, 0x00, 0x00, 0x00, 0x00, 0x00, 0x00, 0x09
};
unsigned int handshake_model_tflite_len = 5528;
