unsigned char handshake_model_tflite[] = {
  0x1c, 0x00, 0x00, 0x00, 0x54, 0x46, 0x4c, 0x33, 0x14, 0x00, 0x20, 0x00,
  0x1c, 0x00, 0x18, 0x00, 0x14, 0x00, 0x10, 0x00, 0x0c, 0x00, 0x00, 0x00,
  0x08, 0x00, 0x04, 0x00, 0x14, 0x00, 0x00, 0x00, 0x1c, 0x00, 0x00, 0x00,
  0x8c, 0x00, 0x00, 0x00, 0xe4, 0x00, 0x00, 0x00, 0x10, 0x0e, 0x00, 0x00,
  0x20, 0x0e, 0x00, 0x00, 0xb4, 0x13, 0x00, 0x00, 0x03, 0x00, 0x00, 0x00,
  0x01, 0x00, 0x00, 0x00, 0x04, 0x00, 0x00, 0x00, 0xa2, 0xf1, 0xff, 0xff,
  0x0c, 0x00, 0x00, 0x00, 0x1c, 0x00, 0x00, 0x00, 0x3c, 0x00, 0x00, 0x00,
  0x0f, 0x00, 0x00, 0x00, 0x73, 0x65, 0x72, 0x76, 0x69, 0x6e, 0x67, 0x5f,
  0x64, 0x65, 0x66, 0x61, 0x75, 0x6c, 0x74, 0x00, 0x01, 0x00, 0x00, 0x00,
  0x04, 0x00, 0x00, 0x00, 0x90, 0xff, 0xff, 0xff, 0x0a, 0x00, 0x00, 0x00,
  0x04, 0x00, 0x00, 0x00, 0x08, 0x00, 0x00, 0x00, 0x6f, 0x75, 0x74, 0x70,
  0x75, 0x74, 0x5f, 0x30, 0x00, 0x00, 0x00, 0x00, 0x01, 0x00, 0x00, 0x00,
  0x04, 0x00, 0x00, 0x00, 0xb2, 0xf2, 0xff, 0xff, 0x04, 0x00, 0x00, 0x00,
  0x0c, 0x00, 0x00, 0x00, 0x6b, 0x65, 0x72, 0x61, 0x73, 0x5f, 0x74, 0x65,
  0x6e, 0x73, 0x6f, 0x72, 0x00, 0x00, 0x00, 0x00, 0x02, 0x00, 0x00, 0x00,
  0x34, 0x00, 0x00, 0x00, 0x04, 0x00, 0x00, 0x00, 0xdc, 0xff, 0xff, 0xff,
  0x0d, 0x00, 0x00, 0x00, 0x04, 0x00, 0x00, 0x00, 0x13, 0x00, 0x00, 0x00,
  0x43, 0x4f, 0x4e, 0x56, 0x45, 0x52, 0x53, 0x49, 0x4f, 0x4e, 0x5f, 0x4d,
  0x45, 0x54, 0x41, 0x44, 0x41, 0x54, 0x41, 0x00, 0x08, 0x00, 0x0c, 0x00,
  0x08, 0x00, 0x04, 0x00, 0x08, 0x00, 0x00, 0x00, 0x0c, 0x00, 0x00, 0x00,
  0x04, 0x00, 0x00, 0x00, 0x13, 0x00, 0x00, 0x00, 0x6d, 0x69, 0x6e, 0x5f,
  0x72, 0x75, 0x6e, 0x74, 0x69, 0x6d, 0x65, 0x5f, 0x76, 0x65, 0x72, 0x73,
  0x69, 0x6f, 0x6e, 0x00, 0x0e, 0x00, 0x00, 0x00, 0x28, 0x0d, 0x00, 0x00,
  0x20, 0x0d, 0x00, 0x00, 0xd0, 0x0c, 0x00, 0x00, 0xb8, 0x04, 0x00, 0x00,
  0xa4, 0x04, 0x00, 0x00, 0x54, 0x04, 0x00, 0x00, 0xc4, 0x03, 0x00, 0x00,
  0xb4, 0x00, 0x00, 0x00, 0xac, 0x00, 0x00, 0x00, 0xa4, 0x00, 0x00, 0x00,
  0x9c, 0x00, 0x00, 0x00, 0x94, 0x00, 0x00, 0x00, 0x74, 0x00, 0x00, 0x00,
  0x04, 0x00, 0x00, 0x00, 0x66, 0xf3, 0xff, 0xff, 0x04, 0x00, 0x00, 0x00,
  0x60, 0x00, 0x00, 0x00, 0x10, 0x00, 0x00, 0x00, 0x00, 0x00, 0x00, 0x00,
  0x08, 0x00, 0x0e, 0x00, 0x08, 0x00, 0x04, 0x00, 0x08, 0x00, 0x00, 0x00,
  0x10, 0x00, 0x00, 0x00, 0x24, 0x00, 0x00, 0x00, 0x00, 0x00, 0x06, 0x00,
  0x08, 0x00, 0x04, 0x00, 0x06, 0x00, 0x00, 0x00, 0x04, 0x00, 0x00, 0x00,
  0x00, 0x00, 0x00, 0x00, 0x0c, 0x00, 0x18, 0x00, 0x14, 0x00, 0x10, 0x00,
  0x0c, 0x00, 0x04, 0x00, 0x0c, 0x00, 0x00, 0x00, 0xce, 0xd4, 0x74, 0x3b,
  0xc5, 0xbb, 0x5f, 0x6a, 0x02, 0x00, 0x00, 0x00, 0x02, 0x00, 0x00, 0x00,
  0x04, 0x00, 0x00, 0x00, 0x06, 0x00, 0x00, 0x00, 0x32, 0x2e, 0x31, 0x39,
  0x2e, 0x30, 0x00, 0x00, 0xd2, 0xf3, 0xff, 0xff, 0x04, 0x00, 0x00, 0x00,
  0x10, 0x00, 0x00, 0x00, 0x31, 0x2e, 0x31, 0x34, 0x2e, 0x30, 0x00, 0x00,
  0x00, 0x00, 0x00, 0x00, 0x00, 0x00, 0x00, 0x00, 0x20, 0xee, 0xff, 0xff,
  0x24, 0xee, 0xff, 0xff, 0x28, 0xee, 0xff, 0xff, 0x2c, 0xee, 0xff, 0xff,
  0xfe, 0xf3, 0xff, 0xff, 0x04, 0x00, 0x00, 0x00, 0x00, 0x03, 0x00, 0x00,
  0xea, 0xde, 0x09, 0x3e, 0x23, 0xbc, 0x31, 0xbe, 0xe4, 0x55, 0xf0, 0xbd,
  0xb3, 0x5e, 0xd6, 0xbd, 0x91, 0x04, 0xbb, 0x3d, 0x6e, 0xec, 0x6e, 0x3e,
  0x83, 0x59, 0x07, 0xbf, 0x5f, 0xa5, 0x7c, 0xbd, 0xc2, 0x3b, 0xd3, 0xbe,
  0x27, 0xa3, 0x0d, 0xbe, 0xd7, 0xbc, 0x0f, 0x3e, 0x2c, 0x4e, 0x1a, 0x3e,
  0x4a, 0xb9, 0xb3, 0xbe, 0xf2, 0xd7, 0x16, 0x3e, 0xfd, 0x90, 0xcb, 0xbe,
  0x73, 0xa0, 0x22, 0xbe, 0x24, 0xbf, 0x3f, 0x3e, 0x3b, 0xbc, 0xdc, 0x3e,
  0x8f, 0x0c, 0x43, 0x3f, 0x24, 0x8e, 0x2f, 0xbf, 0x5d, 0xf9, 0xc0, 0xbf,
  0xdb, 0x22, 0xf5, 0xbd, 0x92, 0xa5, 0x87, 0xbe, 0xa5, 0xdf, 0x98, 0xbe,
  0x21, 0xbc, 0x18, 0xbe, 0xfc, 0xeb, 0x08, 0xbe, 0xed, 0xe4, 0x22, 0xbe,
  0xef, 0x15, 0x5d, 0xbe, 0x53, 0xc5, 0x6e, 0x3e, 0x2f, 0xc5, 0x41, 0x3c,
  0x7b, 0x0b, 0x0d, 0xbf, 0xfe, 0x0f, 0x27, 0xbe, 0x3c, 0x62, 0xfe, 0xbe,
  0x14, 0xd4, 0x8c, 0xbd, 0x58, 0xe5, 0xad, 0x3e, 0x79, 0x86, 0x84, 0xbe,
  0x39, 0xd1, 0xb8, 0x3e, 0xfa, 0x94, 0x98, 0x3e, 0x79, 0x9d, 0xf8, 0x3d,
  0xbe, 0x80, 0x17, 0xbe, 0x7e, 0xdc, 0x87, 0xbe, 0xff, 0x84, 0x86, 0xbc,
  0x42, 0x27, 0x0a, 0xbf, 0xf3, 0xbb, 0x7c, 0xbf, 0xf5, 0x6a, 0x24, 0xbf,
  0xfa, 0xd9, 0x65, 0x3e, 0x4d, 0xe1, 0x8f, 0x3d, 0x36, 0x8a, 0x00, 0x3d,
  0x72, 0x8d, 0x30, 0xbe, 0xdf, 0xe7, 0xf0, 0xbe, 0x20, 0x27, 0x47, 0xbe,
  0x8b, 0x9a, 0x81, 0xbc, 0xe8, 0xc4, 0xa4, 0xbe, 0x31, 0xab, 0xa3, 0x3e,
  0x82, 0xb8, 0x8d, 0x3f, 0x4f, 0x99, 0x26, 0xbe, 0xb2, 0x32, 0xca, 0x3e,
  0x42, 0xcd, 0xa6, 0x3c, 0xa9, 0x0c, 0x78, 0xbd, 0xb8, 0xf5, 0x04, 0x3c,
  0x93, 0x56, 0x27, 0xbf, 0x26, 0x3d, 0x98, 0xbc, 0x52, 0xd6, 0x28, 0x3e,
  0x42, 0x81, 0xad, 0x3e, 0xfd, 0xb0, 0x05, 0xbe, 0x72, 0x76, 0x3e, 0xbe,
  0x6e, 0xbb, 0x5e, 0x3f, 0x29, 0x54, 0x92, 0x3e, 0x2a, 0x70, 0x02, 0x3e,
  0x2b, 0x45, 0x2a, 0x3e, 0x66, 0x1d, 0x1a, 0x3e, 0x0f, 0x3e, 0xea, 0x3c,
  0xec, 0x3e, 0x26, 0x3f, 0xd3, 0xc2, 0x81, 0x3e, 0x75, 0xee, 0xe2, 0xbb,
  0x67, 0x06, 0x4e, 0x3e, 0x11, 0x9f, 0x74, 0x3e, 0x7c, 0x5c, 0x79, 0xbe,
  0x9f, 0x15, 0x73, 0xbf, 0x3d, 0xee, 0xbc, 0x3e, 0xb1, 0xf7, 0x0c, 0x3e,
  0x85, 0x59, 0xf8, 0x3d, 0x3e, 0xbb, 0x4d, 0x3d, 0x73, 0x71, 0x58, 0x3e,
  0x8b, 0x5e, 0x02, 0x3f, 0x5f, 0x9b, 0xa0, 0xbd, 0x9d, 0x2d, 0x16, 0xbd,
  0x82, 0x4a, 0xc7, 0x3e, 0x3c, 0xb4, 0x8f, 0x3e, 0x51, 0x93, 0x41, 0x3e,
  0xe4, 0x76, 0x72, 0xbe, 0x25, 0xc2, 0x70, 0x3f, 0x3a, 0x84, 0x58, 0x3f,
  0xab, 0x30, 0x3f, 0x3e, 0x16, 0x70, 0x06, 0x3e, 0xd4, 0x06, 0x46, 0xbe,
  0x4b, 0x73, 0x24, 0xbe, 0xf4, 0xc5, 0x9c, 0xbd, 0xa0, 0xf8, 0x6e, 0xbe,
  0xbd, 0x26, 0x33, 0xbd, 0x7b, 0xb5, 0xd6, 0x3d, 0x59, 0xcb, 0xbb, 0x3d,
  0xeb, 0x28, 0x18, 0xbf, 0xc9, 0x4f, 0x6f, 0xbd, 0xae, 0xf9, 0x6d, 0x3f,
  0x07, 0x9b, 0xa3, 0xbe, 0x4e, 0x85, 0x77, 0xbe, 0x23, 0xdb, 0x7d, 0xbe,
  0xbb, 0xd3, 0xf3, 0x3d, 0x79, 0x4b, 0xd7, 0x3e, 0x8f, 0xe8, 0xc1, 0xbd,
  0x24, 0xc7, 0xd0, 0xbd, 0x32, 0x2b, 0x6e, 0xbc, 0x18, 0xda, 0x9c, 0x3e,
  0xcf, 0xc0, 0xf4, 0x3e, 0x83, 0x1b, 0x24, 0xbb, 0xef, 0x15, 0x92, 0x3e,
  0xe6, 0x84, 0x5e, 0x3e, 0x1f, 0x59, 0xa8, 0x3e, 0x17, 0x62, 0x8c, 0xbe,
  0x66, 0x53, 0x2c, 0x3f, 0xb7, 0x23, 0x01, 0x3f, 0xc1, 0xc7, 0x05, 0x3e,
  0x73, 0x05, 0xb2, 0x3d, 0x46, 0x5a, 0x97, 0xbd, 0x1f, 0x8f, 0xea, 0x3d,
  0x12, 0xa1, 0x83, 0xbe, 0x26, 0x6a, 0xb8, 0x3c, 0x40, 0x06, 0x6f, 0xbf,
  0xf2, 0x3a, 0xcb, 0xbe, 0xbd, 0xcf, 0xf1, 0xbd, 0xdf, 0xb0, 0xaa, 0x3e,
  0xac, 0x80, 0xbe, 0x3e, 0x91, 0x35, 0x22, 0xbe, 0x49, 0x6a, 0xdc, 0x3e,
  0xa8, 0x20, 0xc6, 0x3e, 0x5e, 0xbb, 0x3a, 0x3e, 0x1c, 0x80, 0xac, 0x3d,
  0x6a, 0x7c, 0x4a, 0x3e, 0x67, 0x44, 0x64, 0x3e, 0x02, 0xc1, 0x0b, 0xbf,
  0xe0, 0x7b, 0xe2, 0x3e, 0x4c, 0x21, 0xa6, 0x3b, 0xb1, 0xc5, 0x28, 0x3e,
  0x44, 0x99, 0x2c, 0xbf, 0x06, 0xe1, 0xd2, 0x3d, 0x5e, 0x2d, 0x76, 0x3f,
  0xb8, 0x17, 0x20, 0xbe, 0x15, 0x98, 0xde, 0xbc, 0x82, 0x88, 0xba, 0xbe,
  0xf8, 0x67, 0x05, 0xbf, 0x87, 0x71, 0x98, 0xbd, 0x43, 0x13, 0x85, 0xbf,
  0x9b, 0x2a, 0xb4, 0x3b, 0x2f, 0x99, 0xb7, 0x3d, 0x2a, 0x30, 0xc5, 0xbe,
  0x16, 0xdf, 0xa7, 0xbf, 0x43, 0xc8, 0xa6, 0xbd, 0xf7, 0x9f, 0x0b, 0xbe,
  0xea, 0x35, 0x35, 0x3d, 0x63, 0x6c, 0x4b, 0x3d, 0xda, 0xa7, 0x29, 0x3c,
  0x50, 0x87, 0x18, 0x3f, 0x42, 0xe4, 0x81, 0x3e, 0xc8, 0x1c, 0x16, 0x3e,
  0x8f, 0xfd, 0x04, 0xbe, 0x63, 0x32, 0xc6, 0x3d, 0x9e, 0xf7, 0x35, 0x3e,
  0x3b, 0x8c, 0xf6, 0x3e, 0x43, 0x69, 0x86, 0x3f, 0x52, 0x14, 0xc5, 0x3f,
  0x97, 0xc6, 0x11, 0xbe, 0xd4, 0x0f, 0x7a, 0xbe, 0x5c, 0xde, 0xa8, 0xbe,
  0xf0, 0x9e, 0x65, 0xbe, 0x80, 0x70, 0x4e, 0xbe, 0x26, 0x53, 0x29, 0x3e,
  0x58, 0x0f, 0xa8, 0x3e, 0x33, 0x54, 0xa1, 0x3e, 0x1c, 0x94, 0x02, 0x3d,
  0x31, 0x3d, 0xb3, 0xbf, 0xb2, 0xbc, 0x99, 0xbf, 0x9b, 0x8c, 0x83, 0xbd,
  0xcd, 0x49, 0x0d, 0x3e, 0x80, 0x19, 0x60, 0xbe, 0xb1, 0xef, 0xea, 0xbc,
  0x64, 0x6d, 0x52, 0xbe, 0xcd, 0xeb, 0x87, 0x3f, 0x98, 0x4d, 0xb0, 0xbe,
  0x17, 0xbd, 0x49, 0xbe, 0x8a, 0x35, 0x83, 0xbe, 0x3b, 0x86, 0x6d, 0x3e,
  0x0a, 0xf7, 0xff, 0xff, 0x04, 0x00, 0x00, 0x00, 0x80, 0x00, 0x00, 0x00,
  0x34, 0x06, 0x94, 0xbf, 0x2f, 0xc0, 0x87, 0xbf, 0x73, 0x78, 0x58, 0xbf,
  0x19, 0xd8, 0x09, 0xbf, 0x01, 0x11, 0x7b, 0x3f, 0xf6, 0x0d, 0x9e, 0x3e,
  0x7a, 0xb0, 0x8d, 0xbf, 0x55, 0x98, 0x54, 0xbf, 0xa7, 0xb8, 0x55, 0x3f,
  0xd6, 0x52, 0x29, 0xbd, 0xbe, 0x60, 0xff, 0x3e, 0xca, 0xfb, 0x6c, 0xbd,
  0x66, 0xdc, 0xb1, 0xbe, 0x9f, 0x4c, 0x56, 0xbf, 0xea, 0x26, 0x29, 0xbc,
  0x46, 0xd9, 0x62, 0x3f, 0xc1, 0x82, 0x2e, 0x3f, 0x1f, 0xb4, 0x2e, 0x3f,
  0x59, 0x84, 0xdd, 0xbe, 0xda, 0xed, 0xd6, 0xbe, 0x92, 0x63, 0x3a, 0xbe,
  0x38, 0xae, 0xc6, 0x3f, 0xb2, 0x3d, 0x25, 0x3f, 0x68, 0xf6, 0xee, 0x3e,
  0x13, 0xca, 0x60, 0x3e, 0x9e, 0xb7, 0xf4, 0xbb, 0x98, 0x58, 0x70, 0xbf,
  0x22, 0x7b, 0xa8, 0xbf, 0xb3, 0x94, 0x59, 0x3f, 0x45, 0x28, 0xfc, 0x3e,
  0xe6, 0x7c, 0x9b, 0xbf, 0x95, 0x54, 0xfa, 0x3d, 0x96, 0xf7, 0xff, 0xff,
  0x04, 0x00, 0x00, 0x00, 0x40, 0x00, 0x00, 0x00, 0xf8, 0xb2, 0x9f, 0x3e,
  0x5c, 0x2b, 0x60, 0x3f, 0x22, 0xe3, 0x54, 0xbf, 0x40, 0x4f, 0x23, 0x3f,
  0x30, 0xae, 0x64, 0x3d, 0xc7, 0xbd, 0xd2, 0x3e, 0xfd, 0x00, 0xa4, 0xbf,
  0x72, 0x22, 0xd6, 0xbf, 0x53, 0x54, 0xa4, 0xbf, 0xda, 0x61, 0xdc, 0xbf,
  0x12, 0x11, 0xb4, 0xbc, 0x02, 0x23, 0xeb, 0x3e, 0x0c, 0x5e, 0xa0, 0x3f,
  0x20, 0x58, 0xb3, 0xbf, 0xd8, 0x0c, 0xb3, 0xbf, 0xf1, 0x02, 0xbd, 0xb8,
  0xe2, 0xf7, 0xff, 0xff, 0x04, 0x00, 0x00, 0x00, 0x04, 0x00, 0x00, 0x00,
  0x43, 0x08, 0x2c, 0xbf, 0xf2, 0xf7, 0xff, 0xff, 0x04, 0x00, 0x00, 0x00,
  0x00, 0x08, 0x00, 0x00, 0x0b, 0xb3, 0x91, 0x3e, 0x61, 0x6c, 0xd4, 0x3d,
  0x73, 0xcd, 0x40, 0x3e, 0xf2, 0xbd, 0xd2, 0x3e, 0x27, 0xb5, 0x2f, 0x3d,
  0xa0, 0xec, 0x8b, 0xbd, 0x00, 0x6a, 0xac, 0x3e, 0x14, 0xe2, 0x9d, 0x3c,
  0x8e, 0x69, 0x4c, 0x3d, 0xa0, 0xa0, 0x8b, 0xbe, 0x6e, 0x36, 0xc5, 0x3d,
  0x05, 0x83, 0xc3, 0xbe, 0x56, 0xca, 0x9c, 0xbe, 0x00, 0x1a, 0x64, 0xbe,
  0x8f, 0x8f, 0xa5, 0xbe, 0xfa, 0xac, 0xc5, 0x3c, 0x00, 0xa1, 0x37, 0xbd,
  0x69, 0x37, 0xfc, 0x3d, 0xac, 0xb7, 0xd4, 0xbe, 0x8c, 0x5e, 0x1f, 0xbe,
  0x3d, 0xa5, 0x49, 0x3e, 0x51, 0xeb, 0x73, 0x3d, 0xd6, 0xf6, 0x17, 0xbf,
  0x58, 0xe2, 0x63, 0xbd, 0xe6, 0xfa, 0xce, 0xbd, 0x15, 0xba, 0x5b, 0x3e,
  0xce, 0x78, 0x77, 0xbf, 0x88, 0x70, 0xf8, 0xbd, 0xe2, 0xbe, 0x1c, 0x3e,
  0x2a, 0x36, 0xb8, 0xbd, 0x16, 0x5a, 0xc8, 0xbc, 0x00, 0x0a, 0x03, 0xbe,
  0x55, 0xe3, 0xda, 0x3d, 0xc7, 0xc3, 0x5c, 0xbb, 0x7e, 0x81, 0x48, 0xbe,
  0x2b, 0x7f, 0xa9, 0x3e, 0x42, 0x10, 0x9b, 0x3e, 0x3c, 0x72, 0x5b, 0xbe,
  0x61, 0xf4, 0x5c, 0xbe, 0x83, 0xbf, 0xc3, 0x3d, 0x63, 0x8f, 0xa5, 0x3e,
  0xa2, 0xba, 0x07, 0xbf, 0xd6, 0x78, 0x00, 0xbf, 0x5f, 0x56, 0xa2, 0x3e,
  0xd1, 0x6a, 0x9f, 0xbd, 0xf1, 0x59, 0x6f, 0xbe, 0x03, 0x39, 0x2c, 0x3e,
  0x84, 0x64, 0xd0, 0xbd, 0x29, 0x53, 0x12, 0x3e, 0xe7, 0x09, 0x9f, 0x3d,
  0x5f, 0x07, 0x75, 0x3d, 0x8d, 0x33, 0xdf, 0xbb, 0x86, 0x84, 0xc1, 0xbe,
  0xd4, 0x84, 0x85, 0x3e, 0xbf, 0x33, 0xe3, 0x3d, 0xdc, 0xfd, 0x04, 0xbd,
  0x3f, 0xb7, 0x6c, 0xbd, 0xeb, 0xe8, 0x6c, 0x3e, 0x5a, 0x68, 0xce, 0xbe,
  0x25, 0x5d, 0x3a, 0xbe, 0x90, 0x70, 0x7e, 0xbe, 0x5c, 0x20, 0x4c, 0x3e,
  0x52, 0x1f, 0xfe, 0xbd, 0x45, 0x38, 0x69, 0xbe, 0x30, 0x7b, 0xc2, 0x3e,
  0x19, 0x68, 0xb4, 0x3b, 0xed, 0xce, 0x28, 0xbe, 0x8f, 0xd6, 0x3a, 0xbe,
  0x51, 0x19, 0xa6, 0x3e, 0xa6, 0x69, 0x3b, 0xbe, 0xc3, 0x15, 0x8c, 0xbe,
  0xc8, 0x6b, 0xdb, 0xbe, 0x53, 0x37, 0xa6, 0xbe, 0x62, 0xfe, 0x29, 0xbe,
  0x75, 0xd0, 0xb0, 0xbd, 0x1f, 0x74, 0x18, 0xbe, 0xf2, 0xe0, 0x7c, 0xbe,
  0xd8, 0x08, 0x92, 0x3e, 0x1b, 0x79, 0x3f, 0xbe, 0x30, 0xe6, 0xb7, 0x3e,
  0xe6, 0xd1, 0x22, 0xbe, 0x48, 0x04, 0x46, 0x3e, 0xd5, 0x02, 0x22, 0x3e,
  0x12, 0x0b, 0x86, 0x3e, 0x14, 0xf5, 0xcd, 0x3d, 0xbc, 0xec, 0x93, 0x3d,
  0xb7, 0x6e, 0x64, 0x3e, 0x9d, 0x2e, 0x88, 0xbc, 0x3c, 0x9c, 0xe5, 0x3d,
  0x75, 0x64, 0x93, 0xbe, 0x01, 0x79, 0xb0, 0xbc, 0x38, 0x1a, 0x03, 0xbe,
  0x12, 0x29, 0x7b, 0x3e, 0x37, 0xf4, 0x8a, 0x3d, 0xf4, 0xee, 0xa9, 0xbd,
  0xe1, 0xa0, 0x8c, 0x3e, 0xd3, 0x3e, 0x99, 0xbe, 0xda, 0x17, 0xaa, 0x3e,
  0x39, 0x25, 0x8c, 0x3e, 0x71, 0x87, 0x3c, 0x3e, 0xd4, 0x5d, 0xcc, 0xbd,
  0xad, 0x7f, 0xae, 0x3e, 0xc6, 0x63, 0x69, 0x3b, 0x47, 0xad, 0x5f, 0x3d,
  0x08, 0xc9, 0xb2, 0x3e, 0x3c, 0x7a, 0x04, 0xbf, 0x0d, 0xcb, 0xaf, 0x3e,
  0xa7, 0x59, 0x23, 0xbe, 0xf0, 0x55, 0x9b, 0x3e, 0xde, 0x80, 0x9b, 0xbe,
  0xf9, 0x6f, 0x07, 0x3e, 0x9e, 0x6d, 0xa4, 0xbe, 0x94, 0xc0, 0xc3, 0xbd,
  0xfc, 0xdd, 0x83, 0xbe, 0xc7, 0x2c, 0x79, 0xbe, 0x9d, 0xf9, 0x17, 0x3e,
  0xb1, 0xa7, 0x79, 0x3e, 0x37, 0x61, 0xb8, 0x3e, 0x12, 0xb2, 0x81, 0xbe,
  0xc1, 0x3d, 0xd0, 0x3e, 0x1f, 0x2a, 0x98, 0xbe, 0x12, 0x5b, 0xb3, 0x3d,
  0x95, 0xcc, 0x2a, 0xbf, 0xc9, 0x67, 0x09, 0xbd, 0x32, 0x34, 0x86, 0xbd,
  0x96, 0xa9, 0x8f, 0xbe, 0x3e, 0x82, 0x31, 0xbe, 0x0b, 0x8d, 0x80, 0xbd,
  0xfd, 0xed, 0x83, 0x3c, 0xb7, 0x07, 0xcf, 0x3d, 0xd0, 0x20, 0x07, 0x3e,
  0x13, 0x73, 0xbf, 0xbe, 0xd8, 0x03, 0x16, 0xbe, 0x1f, 0x75, 0x73, 0x3e,
  0x83, 0x8a, 0x68, 0xbe, 0xf4, 0x74, 0x0f, 0xbe, 0x31, 0xa4, 0x01, 0x3e,
  0x26, 0xe4, 0xa5, 0x3e, 0x02, 0x2d, 0xc6, 0x3e, 0x84, 0x63, 0x10, 0xbe,
  0x2e, 0x2a, 0x9a, 0xbb, 0xce, 0x08, 0x2a, 0x3e, 0x5f, 0x8e, 0x0f, 0x3e,
  0x67, 0x80, 0xb5, 0x3e, 0x2d, 0xcb, 0x7f, 0xbe, 0xe4, 0x2a, 0xaa, 0x3e,
  0x91, 0x33, 0x06, 0x3e, 0x4d, 0xd8, 0x56, 0x3e, 0xd9, 0x15, 0x2d, 0xbe,
  0x82, 0xb5, 0xae, 0xbe, 0xfb, 0xa9, 0x38, 0xbe, 0x17, 0xd4, 0x8f, 0xbd,
  0xbc, 0x60, 0xd0, 0x3e, 0xf7, 0xfb, 0x46, 0xbe, 0x09, 0x20, 0xf5, 0xbd,
  0x3e, 0xac, 0x9f, 0xbe, 0x14, 0x28, 0x4a, 0xbe, 0x34, 0xac, 0xbf, 0xbe,
  0x18, 0xa3, 0x00, 0x3e, 0x91, 0x73, 0xff, 0xbd, 0x17, 0x22, 0x85, 0xbe,
  0x9d, 0x01, 0xc6, 0x3c, 0x0b, 0x52, 0xd8, 0xbd, 0x43, 0x87, 0x89, 0x3e,
  0x29, 0xa8, 0x64, 0x3e, 0x6e, 0x7d, 0x3b, 0x3e, 0x73, 0xd1, 0x7d, 0xbe,
  0xda, 0xf3, 0x9b, 0xbe, 0x6e, 0x49, 0x81, 0x3e, 0xc1, 0x92, 0x9e, 0x3d,
  0x4e, 0xb9, 0x67, 0xbe, 0x8c, 0xe2, 0x1f, 0x3e, 0xed, 0xee, 0x29, 0xbe,
  0xf8, 0xb7, 0x49, 0xbe, 0xa2, 0xbb, 0xba, 0x3e, 0xc7, 0x87, 0x3e, 0x3e,
  0x32, 0xd9, 0xa9, 0x3e, 0xbe, 0x4a, 0xa1, 0x3e, 0x2b, 0x24, 0x0f, 0xbf,
  0x0e, 0xcd, 0x9c, 0xbd, 0xa0, 0x97, 0x0b, 0x3d, 0x90, 0xe8, 0x7c, 0xbe,
  0x26, 0x9b, 0xe5, 0xbd, 0x4e, 0xf2, 0xe9, 0xbc, 0xf6, 0xea, 0x8a, 0x3e,
  0x91, 0x03, 0x6a, 0x3e, 0xe5, 0x0d, 0x32, 0xbf, 0xa0, 0x68, 0x92, 0xbe,
  0xf4, 0x60, 0x70, 0xbe, 0xd7, 0x34, 0x85, 0xbe, 0x14, 0x31, 0xa0, 0x3e,
  0x23, 0xa8, 0x22, 0xbc, 0xad, 0xb1, 0x8f, 0x3d, 0x5e, 0x9a, 0x2f, 0x3e,
  0x06, 0xf4, 0xf4, 0xbd, 0x32, 0x3c, 0x80, 0x3e, 0x15, 0xe8, 0x1b, 0x3e,
  0x1e, 0x3c, 0x6a, 0x3d, 0xd4, 0x82, 0x5f, 0x3e, 0x34, 0xa5, 0x4e, 0x3d,
  0x1b, 0x4a, 0x65, 0x3e, 0x97, 0xcd, 0xa6, 0x3e, 0x21, 0x8f, 0xf2, 0x3d,
  0x9c, 0x66, 0xde, 0xbe, 0xd2, 0x1b, 0x07, 0xbe, 0x17, 0xdd, 0xe0, 0x3e,
  0x62, 0x8c, 0xdd, 0xbd, 0xeb, 0x69, 0x53, 0xbe, 0x04, 0x27, 0x38, 0xbe,
  0xea, 0xaa, 0x1c, 0xbe, 0x51, 0xec, 0xf1, 0x3d, 0x7b, 0x84, 0xfc, 0x3d,
  0xd5, 0x9a, 0x61, 0x3e, 0x5e, 0xd6, 0x9a, 0x3e, 0x83, 0x75, 0x81, 0xbe,
  0x0a, 0xbc, 0xa6, 0xbe, 0x94, 0x1b, 0xe7, 0x3d, 0x49, 0xa7, 0x73, 0x3e,
  0x12, 0xcd, 0x3c, 0x3f, 0xd2, 0x87, 0x9b, 0xbe, 0x1d, 0x48, 0xc0, 0xbe,
  0x9e, 0x2d, 0x94, 0x3d, 0x55, 0x32, 0x9a, 0x3e, 0xe0, 0xd9, 0xbd, 0xbe,
  0x03, 0x40, 0x60, 0x3e, 0x22, 0x5a, 0x0d, 0x3d, 0xef, 0x26, 0x64, 0xbd,
  0xd4, 0x4f, 0x8b, 0xbc, 0xea, 0xd2, 0x99, 0xbe, 0x84, 0x50, 0x07, 0x3d,
  0xaf, 0xe8, 0xb6, 0x3d, 0x10, 0xe9, 0xd5, 0x3e, 0x50, 0x3e, 0x0d, 0xbd,
  0x4b, 0xa2, 0xd8, 0xbd, 0x4b, 0xf4, 0x91, 0xbe, 0xbf, 0xe0, 0x8b, 0xbd,
  0x4d, 0x52, 0x4a, 0x3e, 0xd9, 0xac, 0xc2, 0xbd, 0xb3, 0x00, 0xba, 0x3d,
  0xb1, 0xf1, 0xaa, 0xbe, 0xc4, 0x4b, 0x09, 0xbd, 0x0c, 0xea, 0x30, 0xbd,
  0x37, 0xef, 0x72, 0x3d, 0x25, 0x22, 0x62, 0xbd, 0x5d, 0x9a, 0x35, 0xbd,
  0x87, 0x67, 0xcc, 0xbd, 0xd9, 0x5e, 0x2a, 0x3e, 0x67, 0x56, 0x95, 0xbd,
  0x66, 0x2f, 0x6e, 0x3e, 0xd7, 0x9d, 0xa5, 0x3e, 0x1f, 0x92, 0x0d, 0x3e,
  0x92, 0xc7, 0xc8, 0x3e, 0x64, 0x35, 0xe2, 0xbd, 0x65, 0x7a, 0x67, 0xbe,
  0x1c, 0x40, 0x17, 0x3f, 0x2d, 0x0d, 0x31, 0x3d, 0x3d, 0xc1, 0x9e, 0x3d,
  0xf4, 0x88, 0xb0, 0x3d, 0xd4, 0x04, 0xe4, 0x3d, 0xa1, 0x00, 0x42, 0xbe,
  0x13, 0x39, 0x04, 0x3e, 0x75, 0x66, 0x22, 0x3e, 0x1e, 0xe7, 0x93, 0xbd,
  0xe8, 0x59, 0x3a, 0xbd, 0xcf, 0x82, 0xd6, 0x3d, 0x4c, 0x4c, 0xb6, 0x3d,
  0x7f, 0x1b, 0xf7, 0x3c, 0x4e, 0x9a, 0x1c, 0xbd, 0xec, 0x89, 0xfb, 0xbc,
  0x3a, 0x7c, 0x8d, 0xbe, 0x2b, 0x2b, 0x83, 0x3d, 0xb7, 0x8a, 0xcd, 0xbd,
  0x62, 0x46, 0x4a, 0x3a, 0xef, 0x10, 0x68, 0x3e, 0x1c, 0xd7, 0xcc, 0x3c,
  0x42, 0x63, 0x86, 0x3d, 0xcc, 0x20, 0x10, 0x3e, 0xee, 0xdc, 0xb7, 0xbe,
  0x7f, 0xe3, 0x97, 0x3e, 0x4c, 0x86, 0x5f, 0xbe, 0xe7, 0xac, 0x25, 0xbe,
  0xaa, 0x8d, 0x06, 0xbf, 0xc7, 0xb9, 0x79, 0x3e, 0xd0, 0x30, 0x7a, 0x3e,
  0xa8, 0x8f, 0x4f, 0x3e, 0x61, 0x62, 0x1a, 0xbe, 0xaf, 0x63, 0x01, 0xbd,
  0x36, 0x68, 0x08, 0xbe, 0xd1, 0x0c, 0x50, 0x3e, 0x99, 0x31, 0x9e, 0x3e,
  0x24, 0xbe, 0x9e, 0xbe, 0x78, 0xca, 0x6c, 0x3e, 0xf1, 0x51, 0x5f, 0xbe,
  0xcf, 0x92, 0x8f, 0x3e, 0x06, 0xa2, 0xd6, 0x3e, 0x5c, 0x9d, 0xe1, 0x3e,
  0xe6, 0xee, 0x8e, 0xbe, 0xfd, 0xfe, 0xbc, 0x3e, 0xc5, 0x0b, 0xa0, 0xbd,
  0xfa, 0x6a, 0x98, 0xbd, 0x3f, 0x45, 0xde, 0x3b, 0xd7, 0x5e, 0xae, 0x3e,
  0x6d, 0xb2, 0x91, 0xbe, 0x3d, 0x32, 0x7c, 0x3e, 0x9a, 0x28, 0xb8, 0xbc,
  0x6b, 0x50, 0xef, 0x3d, 0xf1, 0x09, 0x87, 0x3e, 0xf1, 0x35, 0xa8, 0xbd,
  0x12, 0xfb, 0x07, 0x3e, 0x9e, 0xc8, 0x5c, 0x3e, 0xf3, 0x53, 0x6e, 0x3e,
  0xa1, 0xe1, 0x83, 0x3e, 0xd4, 0x5e, 0xc5, 0xbc, 0x21, 0x91, 0xa9, 0xbd,
  0x60, 0x3e, 0x6f, 0x3f, 0x8d, 0xf8, 0x1c, 0xbe, 0xc2, 0x79, 0x86, 0xbe,
  0x9e, 0xd0, 0xbc, 0xbe, 0xc8, 0x55, 0xdd, 0xbd, 0x93, 0xa6, 0x21, 0xbe,
  0x1f, 0x3d, 0x63, 0xbe, 0x1b, 0xd6, 0x3c, 0x3e, 0x01, 0x9f, 0x2f, 0xbe,
  0x2b, 0x98, 0xbc, 0x3c, 0xbb, 0x20, 0x90, 0x3e, 0x6b, 0x79, 0x37, 0xbe,
  0xcc, 0x41, 0x71, 0xbc, 0xf1, 0xe4, 0x27, 0xbd, 0x85, 0x43, 0xcf, 0xbd,
  0x03, 0x93, 0xed, 0xbc, 0xae, 0xa5, 0x8a, 0x3c, 0x88, 0xa3, 0xad, 0x3d,
  0xc1, 0x33, 0x52, 0x3e, 0x85, 0x40, 0x7a, 0x3d, 0x9f, 0xb3, 0x0a, 0x3e,
  0xff, 0x78, 0x0b, 0x3e, 0xc4, 0xd2, 0xd4, 0x3a, 0xab, 0x5a, 0x90, 0xbe,
  0xa6, 0xd4, 0x1a, 0xbe, 0x35, 0xc9, 0x3f, 0x3e, 0x62, 0xf3, 0x87, 0x3e,
  0x43, 0x15, 0x8d, 0xbe, 0xca, 0x75, 0x99, 0xbd, 0x8d, 0xa9, 0xbc, 0x3a,
  0x4b, 0x61, 0x80, 0x3e, 0x32, 0x00, 0xab, 0x3e, 0x4b, 0xed, 0xdf, 0x3e,
  0x29, 0x5f, 0xce, 0x3c, 0xec, 0xd1, 0xb5, 0x3e, 0x8b, 0xd4, 0x62, 0xbe,
  0x10, 0x46, 0xf9, 0xbd, 0x37, 0x7f, 0x03, 0xbe, 0x18, 0x5b, 0x9e, 0x3e,
  0xd8, 0x33, 0xa7, 0xbd, 0x5c, 0x12, 0x24, 0xbe, 0x42, 0x98, 0x60, 0x3e,
  0x4f, 0x7d, 0x06, 0x3e, 0x49, 0xab, 0x29, 0x3e, 0x7c, 0xe3, 0xbb, 0x3e,
  0xe7, 0x48, 0x83, 0x3e, 0xc1, 0xe7, 0x6d, 0xbd, 0x7d, 0x1f, 0x8b, 0xbd,
  0x3f, 0xc4, 0xaa, 0x3e, 0x63, 0xaf, 0x72, 0xbe, 0xac, 0x23, 0x30, 0x3e,
  0x79, 0x00, 0xab, 0xbe, 0x40, 0x9b, 0x2d, 0xbe, 0x78, 0xdf, 0xea, 0xbd,
  0xef, 0xbe, 0x52, 0xbd, 0xef, 0x83, 0x99, 0xbe, 0xcf, 0x7e, 0xb4, 0xbe,
  0xc0, 0x16, 0x08, 0x3e, 0xab, 0xcb, 0x72, 0xbd, 0xfe, 0x14, 0x75, 0x3e,
  0xfb, 0x34, 0xf9, 0x3c, 0x11, 0x07, 0xa9, 0x3e, 0x1d, 0x65, 0xe7, 0x3d,
  0x8f, 0x69, 0x69, 0x3e, 0x97, 0x3e, 0x64, 0xbe, 0x2a, 0x7b, 0x61, 0x3e,
  0x11, 0x1c, 0x81, 0xbe, 0xa1, 0x11, 0x95, 0x3e, 0xde, 0x10, 0xa3, 0xbc,
  0x24, 0xda, 0x8f, 0xbe, 0x1f, 0xf3, 0x24, 0xbe, 0x2c, 0xc1, 0x5b, 0x3e,
  0x9f, 0xc9, 0x49, 0x3e, 0x83, 0xce, 0xfa, 0x3d, 0x66, 0xca, 0x36, 0x3e,
  0xd1, 0x0f, 0x4e, 0xbe, 0x9b, 0x26, 0xbf, 0x3e, 0x7a, 0x9c, 0x9a, 0x3d,
  0xb7, 0x55, 0x03, 0xbf, 0x5f, 0xf3, 0xa1, 0x3d, 0x09, 0xec, 0x02, 0xbf,
  0x7c, 0x6b, 0x5d, 0xbe, 0x33, 0x81, 0x31, 0x3d, 0xf8, 0x31, 0xb6, 0xbe,
  0x40, 0x33, 0xbc, 0xbe, 0x13, 0x2e, 0x91, 0xbd, 0x4a, 0xb9, 0xcf, 0x3d,
  0x1e, 0xab, 0xde, 0x3e, 0x88, 0x2d, 0x0a, 0xbf, 0x89, 0x1c, 0x3c, 0x3d,
  0xe2, 0xec, 0x1c, 0x3d, 0xa5, 0x76, 0xdf, 0xbc, 0x15, 0x03, 0xb6, 0xbe,
  0x16, 0x53, 0x9f, 0x3e, 0x84, 0x5d, 0xdb, 0xbc, 0x1a, 0x41, 0xa0, 0xbd,
  0x06, 0x85, 0xdd, 0x3d, 0x19, 0xd8, 0x06, 0x3e, 0xf0, 0xa2, 0x44, 0xbe,
  0xeb, 0x96, 0x7f, 0x3e, 0x5a, 0x67, 0xde, 0xbe, 0x31, 0x48, 0x10, 0xbf,
  0x9d, 0x84, 0xa5, 0x3e, 0xa0, 0xf0, 0xba, 0x3e, 0xf8, 0x82, 0xc9, 0x3e,
  0x66, 0x6a, 0x55, 0x3e, 0xcb, 0xf6, 0x51, 0xbe, 0xa6, 0x6a, 0xbd, 0xbc,
  0x40, 0x57, 0x7e, 0x3d, 0xad, 0xf8, 0xca, 0x3e, 0x61, 0x91, 0x0d, 0x3e,
  0x5c, 0x82, 0x86, 0xbe, 0xe4, 0x50, 0xad, 0x3e, 0xca, 0x69, 0xfb, 0xbc,
  0xb1, 0x6f, 0x4c, 0xbe, 0x99, 0xcf, 0x35, 0xbe, 0xa3, 0x57, 0x4f, 0x3e,
  0x9d, 0xc8, 0x15, 0xbe, 0x23, 0x8a, 0x79, 0xbe, 0x54, 0xd7, 0xf3, 0x3d,
  0xd8, 0xa8, 0xa3, 0xbd, 0x17, 0x74, 0xac, 0xbd, 0x42, 0x9a, 0x47, 0xbe,
  0xc9, 0xf0, 0x9f, 0xbc, 0xe6, 0xe6, 0x80, 0xbe, 0x8b, 0x49, 0x97, 0xbe,
  0x5b, 0x12, 0x4d, 0xbe, 0x54, 0xa3, 0x5a, 0x3d, 0x29, 0x49, 0xcd, 0x3c,
  0xcd, 0xe9, 0x64, 0x3e, 0xa1, 0xc7, 0xed, 0x3b, 0xfc, 0xeb, 0x90, 0x3c,
  0x5e, 0x6a, 0x97, 0x3e, 0x47, 0xa6, 0xf8, 0xbd, 0x68, 0x57, 0xbe, 0x3e,
  0x4f, 0xca, 0x20, 0x3e, 0xd6, 0xe4, 0x6c, 0xbb, 0xea, 0x34, 0x0c, 0x3f,
  0x2c, 0x7f, 0x4b, 0x3e, 0x16, 0x66, 0x9c, 0xbe, 0xdf, 0xbb, 0x5f, 0x3d,
  0x5d, 0xe7, 0x88, 0x3e, 0x81, 0x8a, 0x00, 0x3d, 0xce, 0x69, 0x4d, 0x3f,
  0xea, 0x3d, 0x28, 0xbe, 0x9f, 0x5c, 0xc0, 0x3e, 0xcf, 0x6d, 0x6f, 0x3e,
  0xd6, 0xdf, 0x88, 0xbe, 0x7a, 0x1a, 0x3c, 0x3e, 0x3d, 0xe0, 0x83, 0xbe,
  0x1e, 0x80, 0xdf, 0xbc, 0x36, 0x3b, 0xda, 0xbe, 0x4d, 0xb3, 0xc2, 0xbd,
  0x55, 0xbe, 0xa4, 0x3e, 0xaf, 0x1a, 0xb4, 0x3e, 0x35, 0xd0, 0x29, 0xbe,
  0xb4, 0x81, 0x6c, 0xbe, 0x99, 0x40, 0x75, 0xbe, 0x08, 0x70, 0xc2, 0xbd,
  0xc0, 0x8c, 0xa1, 0xbd, 0x85, 0x6a, 0x29, 0xbe, 0x3b, 0x3e, 0xa0, 0x3e,
  0x48, 0x6b, 0xbc, 0x3d, 0x37, 0x6e, 0x68, 0xbe, 0x8d, 0xb5, 0xba, 0xbe,
  0xb7, 0xe4, 0x21, 0xbe, 0xfd, 0xd4, 0x29, 0xbe, 0xbf, 0xa7, 0x85, 0xbe,
  0x38, 0xc7, 0xe1, 0xbd, 0x04, 0x71, 0xd2, 0x3d, 0x30, 0x0a, 0xce, 0x3d,
  0x65, 0x2a, 0xae, 0xbe, 0xe1, 0xeb, 0xb4, 0x3d, 0x00, 0x23, 0x27, 0x3c,
  0xe2, 0xef, 0x4e, 0xbe, 0x46, 0x85, 0xb5, 0xbd, 0x15, 0x98, 0x89, 0xbe,
  0x8c, 0x28, 0x87, 0x3e, 0x96, 0x05, 0x13, 0xbe, 0xf4, 0x49, 0x8c, 0xbe,
  0x94, 0xd5, 0xc0, 0xbd, 0x56, 0xdb, 0x5c, 0x3e, 0xae, 0x13, 0x2b, 0x3e,
  0xa4, 0x85, 0x17, 0xbd, 0xd1, 0xea, 0x8e, 0x3e, 0x55, 0x9d, 0xb9, 0xbd,
  0xd8, 0x83, 0x61, 0x3e, 0xb7, 0x8e, 0xb3, 0xbe, 0xfd, 0x3b, 0xb1, 0xbe,
  0x32, 0xef, 0x80, 0xbd, 0xea, 0x2b, 0x96, 0xbe, 0x14, 0xfb, 0xc3, 0xbd,
  0xec, 0x32, 0x9c, 0xbe, 0x20, 0xa7, 0x04, 0xbe, 0xbd, 0xd5, 0x1a, 0xbe,
  0x48, 0x42, 0x84, 0xbe, 0x60, 0x24, 0xb8, 0x3d, 0x13, 0x57, 0x98, 0xbe,
  0x00, 0x00, 0x06, 0x00, 0x08, 0x00, 0x04, 0x00, 0x06, 0x00, 0x00, 0x00,
  0x04, 0x00, 0x00, 0x00, 0x40, 0x00, 0x00, 0x00, 0x21, 0xfe, 0x5b, 0xbe,
  0xe4, 0xc3, 0x0f, 0xbf, 0x82, 0x35, 0x67, 0x3d, 0x35, 0x3d, 0xd1, 0xbe,
  0xea, 0xb6, 0xb9, 0x3e, 0x96, 0xea, 0xd7, 0xbe, 0xc1, 0xeb, 0x74, 0x3e,
  0x67, 0x6d, 0x29, 0x3f, 0x43, 0xf7, 0x3a, 0x3e, 0x6f, 0x96, 0x96, 0x3e,
  0xde, 0xd9, 0xa0, 0x3e, 0xec, 0xef, 0x02, 0xbf, 0x29, 0xcc, 0x08, 0xbe,
  0x54, 0xf9, 0x94, 0x3e, 0x40, 0xf8, 0xcc, 0x3e, 0x4e, 0xc5, 0xd1, 0xbe,
  0x84, 0xfa, 0xff, 0xff, 0x88, 0xfa, 0xff, 0xff, 0x0f, 0x00, 0x00, 0x00,
  0x4d, 0x4c, 0x49, 0x52, 0x20, 0x43, 0x6f, 0x6e, 0x76, 0x65, 0x72, 0x74,
  0x65, 0x64, 0x2e, 0x00, 0x01, 0x00, 0x00, 0x00, 0x14, 0x00, 0x00, 0x00,
  0x00, 0x00, 0x0e, 0x00, 0x18, 0x00, 0x14, 0x00, 0x10, 0x00, 0x0c, 0x00,
  0x08, 0x00, 0x04, 0x00, 0x0e, 0x00, 0x00, 0x00, 0x14, 0x00, 0x00, 0x00,
  0x1c, 0x00, 0x00, 0x00, 0x08, 0x01, 0x00, 0x00, 0x0c, 0x01, 0x00, 0x00,
  0x10, 0x01, 0x00, 0x00, 0x04, 0x00, 0x00, 0x00, 0x6d, 0x61, 0x69, 0x6e,
  0x00, 0x00, 0x00, 0x00, 0x04, 0x00, 0x00, 0x00, 0xb0, 0x00, 0x00, 0x00,
  0x68, 0x00, 0x00, 0x00, 0x34, 0x00, 0x00, 0x00, 0x10, 0x00, 0x00, 0x00,
  0x00, 0x00, 0x0a, 0x00, 0x10, 0x00, 0x0c, 0x00, 0x08, 0x00, 0x04, 0x00,
  0x0a, 0x00, 0x00, 0x00, 0x0c, 0x00, 0x00, 0x00, 0x10, 0x00, 0x00, 0x00,
  0x01, 0x00, 0x00, 0x00, 0x01, 0x00, 0x00, 0x00, 0x0a, 0x00, 0x00, 0x00,
  0x01, 0x00, 0x00, 0x00, 0x09, 0x00, 0x00, 0x00, 0x9a, 0xff, 0xff, 0xff,
  0x10, 0x00, 0x00, 0x00, 0x00, 0x00, 0x00, 0x08, 0x0c, 0x00, 0x00, 0x00,
  0x10, 0x00, 0x00, 0x00, 0x30, 0xfb, 0xff, 0xff, 0x01, 0x00, 0x00, 0x00,
  0x09, 0x00, 0x00, 0x00, 0x03, 0x00, 0x00, 0x00, 0x08, 0x00, 0x00, 0x00,
  0x01, 0x00, 0x00, 0x00, 0x03, 0x00, 0x00, 0x00, 0xca, 0xff, 0xff, 0xff,
  0x10, 0x00, 0x00, 0x00, 0x00, 0x00, 0x00, 0x08, 0x10, 0x00, 0x00, 0x00,
  0x14, 0x00, 0x00, 0x00, 0xba, 0xff, 0xff, 0xff, 0x00, 0x00, 0x00, 0x01,
  0x01, 0x00, 0x00, 0x00, 0x08, 0x00, 0x00, 0x00, 0x03, 0x00, 0x00, 0x00,
  0x07, 0x00, 0x00, 0x00, 0x02, 0x00, 0x00, 0x00, 0x04, 0x00, 0x00, 0x00,
  0x00, 0x00, 0x0e, 0x00, 0x16, 0x00, 0x00, 0x00, 0x10, 0x00, 0x0c, 0x00,
  0x0b, 0x00, 0x04, 0x00, 0x0e, 0x00, 0x00, 0x00, 0x18, 0x00, 0x00, 0x00,
  0x00, 0x00, 0x00, 0x08, 0x18, 0x00, 0x00, 0x00, 0x1c, 0x00, 0x00, 0x00,
  0x00, 0x00, 0x06, 0x00, 0x08, 0x00, 0x07, 0x00, 0x06, 0x00, 0x00, 0x00,
  0x00, 0x00, 0x00, 0x01, 0x01, 0x00, 0x00, 0x00, 0x07, 0x00, 0x00, 0x00,
  0x03, 0x00, 0x00, 0x00, 0x00, 0x00, 0x00, 0x00, 0x06, 0x00, 0x00, 0x00,
  0x05, 0x00, 0x00, 0x00, 0x01, 0x00, 0x00, 0x00, 0x0a, 0x00, 0x00, 0x00,
  0x01, 0x00, 0x00, 0x00, 0x00, 0x00, 0x00, 0x00, 0x0b, 0x00, 0x00, 0x00,
  0xf8, 0x03, 0x00, 0x00, 0xa0, 0x03, 0x00, 0x00, 0x48, 0x03, 0x00, 0x00,
  0x0c, 0x03, 0x00, 0x00, 0xb0, 0x02, 0x00, 0x00, 0x58, 0x02, 0x00, 0x00,
  0x0c, 0x02, 0x00, 0x00, 0x78, 0x01, 0x00, 0x00, 0xdc, 0x00, 0x00, 0x00,
  0x60, 0x00, 0x00, 0x00, 0x04, 0x00, 0x00, 0x00, 0x4a, 0xfc, 0xff, 0xff,
  0x00, 0x00, 0x00, 0x01, 0x14, 0x00, 0x00, 0x00, 0x1c, 0x00, 0x00, 0x00,
  0x1c, 0x00, 0x00, 0x00, 0x0b, 0x00, 0x00, 0x00, 0x34, 0x00, 0x00, 0x00,
  0x02, 0x00, 0x00, 0x00, 0xff, 0xff, 0xff, 0xff, 0x01, 0x00, 0x00, 0x00,
  0x34, 0xfc, 0xff, 0xff, 0x1b, 0x00, 0x00, 0x00, 0x53, 0x74, 0x61, 0x74,
  0x65, 0x66, 0x75, 0x6c, 0x50, 0x61, 0x72, 0x74, 0x69, 0x74, 0x69, 0x6f,
  0x6e, 0x65, 0x64, 0x43, 0x61, 0x6c, 0x6c, 0x5f, 0x31, 0x3a, 0x30, 0x00,
  0x02, 0x00, 0x00, 0x00, 0x01, 0x00, 0x00, 0x00, 0x01, 0x00, 0x00, 0x00,
  0xa2, 0xfc, 0xff, 0xff, 0x00, 0x00, 0x00, 0x01, 0x14, 0x00, 0x00, 0x00,
  0x1c, 0x00, 0x00, 0x00, 0x1c, 0x00, 0x00, 0x00, 0x0a, 0x00, 0x00, 0x00,
  0x54, 0x00, 0x00, 0x00, 0x02, 0x00, 0x00, 0x00, 0xff, 0xff, 0xff, 0xff,
  0x01, 0x00, 0x00, 0x00, 0x8c, 0xfc, 0xff, 0xff, 0x38, 0x00, 0x00, 0x00,
  0x73, 0x65, 0x71, 0x75, 0x65, 0x6e, 0x74, 0x69, 0x61, 0x6c, 0x5f, 0x31,
  0x2f, 0x64, 0x65, 0x6e, 0x73, 0x65, 0x5f, 0x32, 0x5f, 0x31, 0x2f, 0x4d,
  0x61, 0x74, 0x4d, 0x75, 0x6c, 0x3b, 0x73, 0x65, 0x71, 0x75, 0x65, 0x6e,
  0x74, 0x69, 0x61, 0x6c, 0x5f, 0x31, 0x2f, 0x64, 0x65, 0x6e, 0x73, 0x65,
  0x5f, 0x32, 0x5f, 0x31, 0x2f, 0x41, 0x64, 0x64, 0x00, 0x00, 0x00, 0x00,
  0x02, 0x00, 0x00, 0x00, 0x01, 0x00, 0x00, 0x00, 0x01, 0x00, 0x00, 0x00,
  0x1a, 0xfd, 0xff, 0xff, 0x00, 0x00, 0x00, 0x01, 0x14, 0x00, 0x00, 0x00,
  0x1c, 0x00, 0x00, 0x00, 0x1c, 0x00, 0x00, 0x00, 0x09, 0x00, 0x00, 0x00,
  0x74, 0x00, 0x00, 0x00, 0x02, 0x00, 0x00, 0x00, 0xff, 0xff, 0xff, 0xff,
  0x10, 0x00, 0x00, 0x00, 0x04, 0xfd, 0xff, 0xff, 0x58, 0x00, 0x00, 0x00,
  0x73, 0x65, 0x71, 0x75, 0x65, 0x6e, 0x74, 0x69, 0x61, 0x6c, 0x5f, 0x31,
  0x2f, 0x64, 0x65, 0x6e, 0x73, 0x65, 0x5f, 0x31, 0x5f, 0x32, 0x2f, 0x4d,
  0x61, 0x74, 0x4d, 0x75, 0x6c, 0x3b, 0x73, 0x65, 0x71, 0x75, 0x65, 0x6e,
  0x74, 0x69, 0x61, 0x6c, 0x5f, 0x31, 0x2f, 0x64, 0x65, 0x6e, 0x73, 0x65,
  0x5f, 0x31, 0x5f, 0x32, 0x2f, 0x52, 0x65, 0x6c, 0x75, 0x3b, 0x73, 0x65,
  0x71, 0x75, 0x65, 0x6e, 0x74, 0x69, 0x61, 0x6c, 0x5f, 0x31, 0x2f, 0x64,
  0x65, 0x6e, 0x73, 0x65, 0x5f, 0x31, 0x5f, 0x32, 0x2f, 0x42, 0x69, 0x61,
  0x73, 0x41, 0x64, 0x64, 0x00, 0x00, 0x00, 0x00, 0x02, 0x00, 0x00, 0x00,
  0x01, 0x00, 0x00, 0x00, 0x10, 0x00, 0x00, 0x00, 0xb2, 0xfd, 0xff, 0xff,
  0x00, 0x00, 0x00, 0x01, 0x14, 0x00, 0x00, 0x00, 0x1c, 0x00, 0x00, 0x00,
  0x1c, 0x00, 0x00, 0x00, 0x08, 0x00, 0x00, 0x00, 0x6c, 0x00, 0x00, 0x00,
  0x02, 0x00, 0x00, 0x00, 0xff, 0xff, 0xff, 0xff, 0x20, 0x00, 0x00, 0x00,
  0x9c, 0xfd, 0xff, 0xff, 0x52, 0x00, 0x00, 0x00, 0x73, 0x65, 0x71, 0x75,
  0x65, 0x6e, 0x74, 0x69, 0x61, 0x6c, 0x5f, 0x31, 0x2f, 0x64, 0x65, 0x6e,
  0x73, 0x65, 0x5f, 0x31, 0x2f, 0x4d, 0x61, 0x74, 0x4d, 0x75, 0x6c, 0x3b,
  0x73, 0x65, 0x71, 0x75, 0x65, 0x6e, 0x74, 0x69, 0x61, 0x6c, 0x5f, 0x31,
  0x2f, 0x64, 0x65, 0x6e, 0x73, 0x65, 0x5f, 0x31, 0x2f, 0x52, 0x65, 0x6c,
  0x75, 0x3b, 0x73, 0x65, 0x71, 0x75, 0x65, 0x6e, 0x74, 0x69, 0x61, 0x6c,
  0x5f, 0x31, 0x2f, 0x64, 0x65, 0x6e, 0x73, 0x65, 0x5f, 0x31, 0x2f, 0x42,
  0x69, 0x61, 0x73, 0x41, 0x64, 0x64, 0x00, 0x00, 0x02, 0x00, 0x00, 0x00,
  0x01, 0x00, 0x00, 0x00, 0x20, 0x00, 0x00, 0x00, 0x96, 0xfe, 0xff, 0xff,
  0x00, 0x00, 0x00, 0x01, 0x10, 0x00, 0x00, 0x00, 0x10, 0x00, 0x00, 0x00,
  0x07, 0x00, 0x00, 0x00, 0x28, 0x00, 0x00, 0x00, 0x1c, 0xfe, 0xff, 0xff,
  0x1b, 0x00, 0x00, 0x00, 0x73, 0x65, 0x71, 0x75, 0x65, 0x6e, 0x74, 0x69,
  0x61, 0x6c, 0x5f, 0x31, 0x2f, 0x64, 0x65, 0x6e, 0x73, 0x65, 0x5f, 0x31,
  0x2f, 0x4d, 0x61, 0x74, 0x4d, 0x75, 0x6c, 0x00, 0x02, 0x00, 0x00, 0x00,
  0x20, 0x00, 0x00, 0x00, 0x06, 0x00, 0x00, 0x00, 0xde, 0xfe, 0xff, 0xff,
  0x00, 0x00, 0x00, 0x01, 0x10, 0x00, 0x00, 0x00, 0x10, 0x00, 0x00, 0x00,
  0x06, 0x00, 0x00, 0x00, 0x38, 0x00, 0x00, 0x00, 0x64, 0xfe, 0xff, 0xff,
  0x2b, 0x00, 0x00, 0x00, 0x73, 0x65, 0x71, 0x75, 0x65, 0x6e, 0x74, 0x69,
  0x61, 0x6c, 0x5f, 0x31, 0x2f, 0x64, 0x65, 0x6e, 0x73, 0x65, 0x5f, 0x31,
  0x2f, 0x42, 0x69, 0x61, 0x73, 0x41, 0x64, 0x64, 0x2f, 0x52, 0x65, 0x61,
  0x64, 0x56, 0x61, 0x72, 0x69, 0x61, 0x62, 0x6c, 0x65, 0x4f, 0x70, 0x00,
  0x01, 0x00, 0x00, 0x00, 0x20, 0x00, 0x00, 0x00, 0x32, 0xff, 0xff, 0xff,
  0x00, 0x00, 0x00, 0x01, 0x10, 0x00, 0x00, 0x00, 0x10, 0x00, 0x00, 0x00,
  0x05, 0x00, 0x00, 0x00, 0x3c, 0x00, 0x00, 0x00, 0xb8, 0xfe, 0xff, 0xff,
  0x2d, 0x00, 0x00, 0x00, 0x73, 0x65, 0x71, 0x75, 0x65, 0x6e, 0x74, 0x69,
  0x61, 0x6c, 0x5f, 0x31, 0x2f, 0x64, 0x65, 0x6e, 0x73, 0x65, 0x5f, 0x31,
  0x5f, 0x32, 0x2f, 0x42, 0x69, 0x61, 0x73, 0x41, 0x64, 0x64, 0x2f, 0x52,
  0x65, 0x61, 0x64, 0x56, 0x61, 0x72, 0x69, 0x61, 0x62, 0x6c, 0x65, 0x4f,
  0x70, 0x00, 0x00, 0x00, 0x01, 0x00, 0x00, 0x00, 0x10, 0x00, 0x00, 0x00,
  0x8a, 0xff, 0xff, 0xff, 0x00, 0x00, 0x00, 0x01, 0x10, 0x00, 0x00, 0x00,
  0x10, 0x00, 0x00, 0x00, 0x04, 0x00, 0x00, 0x00, 0x1c, 0x00, 0x00, 0x00,
  0x10, 0xff, 0xff, 0xff, 0x0f, 0x00, 0x00, 0x00, 0x61, 0x72, 0x69, 0x74,
  0x68, 0x2e, 0x63, 0x6f, 0x6e, 0x73, 0x74, 0x61, 0x6e, 0x74, 0x32, 0x00,
  0x01, 0x00, 0x00, 0x00, 0x01, 0x00, 0x00, 0x00, 0xc2, 0xff, 0xff, 0xff,
  0x00, 0x00, 0x00, 0x01, 0x10, 0x00, 0x00, 0x00, 0x10, 0x00, 0x00, 0x00,
  0x03, 0x00, 0x00, 0x00, 0x1c, 0x00, 0x00, 0x00, 0x48, 0xff, 0xff, 0xff,
  0x0f, 0x00, 0x00, 0x00, 0x61, 0x72, 0x69, 0x74, 0x68, 0x2e, 0x63, 0x6f,
  0x6e, 0x73, 0x74, 0x61, 0x6e, 0x74, 0x31, 0x00, 0x02, 0x00, 0x00, 0x00,
  0x10, 0x00, 0x00, 0x00, 0x20, 0x00, 0x00, 0x00, 0x00, 0x00, 0x16, 0x00,
  0x18, 0x00, 0x14, 0x00, 0x00, 0x00, 0x10, 0x00, 0x0c, 0x00, 0x08, 0x00,
  0x00, 0x00, 0x00, 0x00, 0x00, 0x00, 0x07, 0x00, 0x16, 0x00, 0x00, 0x00,
  0x00, 0x00, 0x00, 0x01, 0x10, 0x00, 0x00, 0x00, 0x10, 0x00, 0x00, 0x00,
  0x02, 0x00, 0x00, 0x00, 0x1c, 0x00, 0x00, 0x00, 0x9c, 0xff, 0xff, 0xff,
  0x0e, 0x00, 0x00, 0x00, 0x61, 0x72, 0x69, 0x74, 0x68, 0x2e, 0x63, 0x6f,
  0x6e, 0x73, 0x74, 0x61, 0x6e, 0x74, 0x00, 0x00, 0x02, 0x00, 0x00, 0x00,
  0x01, 0x00, 0x00, 0x00, 0x10, 0x00, 0x00, 0x00, 0x00, 0x00, 0x16, 0x00,
  0x1c, 0x00, 0x18, 0x00, 0x00, 0x00, 0x14, 0x00, 0x10, 0x00, 0x0c, 0x00,
  0x00, 0x00, 0x00, 0x00, 0x08, 0x00, 0x07, 0x00, 0x16, 0x00, 0x00, 0x00,
  0x00, 0x00, 0x00, 0x01, 0x14, 0x00, 0x00, 0x00, 0x20, 0x00, 0x00, 0x00,
  0x20, 0x00, 0x00, 0x00, 0x01, 0x00, 0x00, 0x00, 0x3c, 0x00, 0x00, 0x00,
  0x02, 0x00, 0x00, 0x00, 0xff, 0xff, 0xff, 0xff, 0x06, 0x00, 0x00, 0x00,
  0x04, 0x00, 0x04, 0x00, 0x04, 0x00, 0x00, 0x00, 0x1e, 0x00, 0x00, 0x00,
  0x73, 0x65, 0x72, 0x76, 0x69, 0x6e, 0x67, 0x5f, 0x64, 0x65, 0x66, 0x61,
  0x75, 0x6c, 0x74, 0x5f, 0x6b, 0x65, 0x72, 0x61, 0x73, 0x5f, 0x74, 0x65,
  0x6e, 0x73, 0x6f, 0x72, 0x3a, 0x30, 0x00, 0x00, 0x02, 0x00, 0x00, 0x00,
  0x01, 0x00, 0x00, 0x00, 0x06, 0x00, 0x00, 0x00, 0x02, 0x00, 0x00, 0x00,
  0x20, 0x00, 0x00, 0x00, 0x04, 0x00, 0x00, 0x00, 0xf4, 0xff, 0xff, 0xff,
  0x0e, 0x00, 0x00, 0x00, 0x00, 0x00, 0x00, 0x0e, 0x0c, 0x00, 0x0c, 0x00,
  0x0b, 0x00, 0x00, 0x00, 0x00, 0x00, 0x04, 0x00, 0x0c, 0x00, 0x00, 0x00,
  0x09, 0x00, 0x00, 0x00, 0x00, 0x00, 0x00, 0x09
};
unsigned int handshake_model_tflite_len = 5144;
