unsigned char handshake_model_tflite[] = {
  0x1c, 0x00, 0x00, 0x00, 0x54, 0x46, 0x4c, 0x33, 0x14, 0x00, 0x20, 0x00,
  0x1c, 0x00, 0x18, 0x00, 0x14, 0x00, 0x10, 0x00, 0x0c, 0x00, 0x00, 0x00,
  0x08, 0x00, 0x04, 0x00, 0x14, 0x00, 0x00, 0x00, 0x1c, 0x00, 0x00, 0x00,
  0x8c, 0x00, 0x00, 0x00, 0xe4, 0x00, 0x00, 0x00, 0x10, 0x0e, 0x00, 0x00,
  0x20, 0x0e, 0x00, 0x00, 0xb4, 0x13, 0x00, 0x00, 0x03, 0x00, 0x00, 0x00,
  0x01, 0x00, 0x00, 0x00, 0x04, 0x00, 0x00, 0x00, 0xa2, 0xf1, 0xff, 0xff,
  0x0c, 0x00, 0x00, 0x00, 0x1c, 0x00, 0x00, 0x00, 0x3c, 0x00, 0x00, 0x00,
  0x0f, 0x00, 0x00, 0x00, 0x73, 0x65, 0x72, 0x76, 0x69, 0x6e, 0x67, 0x5f,
  0x64, 0x65, 0x66, 0x61, 0x75, 0x6c, 0x74, 0x00, 0x01, 0x00, 0x00, 0x00,
  0x04, 0x00, 0x00, 0x00, 0x90, 0xff, 0xff, 0xff, 0x0a, 0x00, 0x00, 0x00,
  0x04, 0x00, 0x00, 0x00, 0x08, 0x00, 0x00, 0x00, 0x6f, 0x75, 0x74, 0x70,
  0x75, 0x74, 0x5f, 0x30, 0x00, 0x00, 0x00, 0x00, 0x01, 0x00, 0x00, 0x00,
  0x04, 0x00, 0x00, 0x00, 0xb2, 0xf2, 0xff, 0xff, 0x04, 0x00, 0x00, 0x00,
  0x0c, 0x00, 0x00, 0x00, 0x6b, 0x65, 0x72, 0x61, 0x73, 0x5f, 0x74, 0x65,
  0x6e, 0x73, 0x6f, 0x72, 0x00, 0x00, 0x00, 0x00, 0x02, 0x00, 0x00, 0x00,
  0x34, 0x00, 0x00, 0x00, 0x04, 0x00, 0x00, 0x00, 0xdc, 0xff, 0xff, 0xff,
  0x0d, 0x00, 0x00, 0x00, 0x04, 0x00, 0x00, 0x00, 0x13, 0x00, 0x00, 0x00,
  0x43, 0x4f, 0x4e, 0x56, 0x45, 0x52, 0x53, 0x49, 0x4f, 0x4e, 0x5f, 0x4d,
  0x45, 0x54, 0x41, 0x44, 0x41, 0x54, 0x41, 0x00, 0x08, 0x00, 0x0c, 0x00,
  0x08, 0x00, 0x04, 0x00, 0x08, 0x00, 0x00, 0x00, 0x0c, 0x00, 0x00, 0x00,
  0x04, 0x00, 0x00, 0x00, 0x13, 0x00, 0x00, 0x00, 0x6d, 0x69, 0x6e, 0x5f,
  0x72, 0x75, 0x6e, 0x74, 0x69, 0x6d, 0x65, 0x5f, 0x76, 0x65, 0x72, 0x73,
  0x69, 0x6f, 0x6e, 0x00, 0x0e, 0x00, 0x00, 0x00, 0x28, 0x0d, 0x00, 0x00,
  0x20, 0x0d, 0x00, 0x00, 0xd0, 0x0c, 0x00, 0x00, 0xb8, 0x04, 0x00, 0x00,
  0xa4, 0x04, 0x00, 0x00, 0x54, 0x04, 0x00, 0x00, 0xc4, 0x03, 0x00, 0x00,
  0xb4, 0x00, 0x00, 0x00, 0xac, 0x00, 0x00, 0x00, 0xa4, 0x00, 0x00, 0x00,
  0x9c, 0x00, 0x00, 0x00, 0x94, 0x00, 0x00, 0x00, 0x74, 0x00, 0x00, 0x00,
  0x04, 0x00, 0x00, 0x00, 0x66, 0xf3, 0xff, 0xff, 0x04, 0x00, 0x00, 0x00,
  0x60, 0x00, 0x00, 0x00, 0x10, 0x00, 0x00, 0x00, 0x00, 0x00, 0x00, 0x00,
  0x08, 0x00, 0x0e, 0x00, 0x08, 0x00, 0x04, 0x00, 0x08, 0x00, 0x00, 0x00,
  0x10, 0x00, 0x00, 0x00, 0x24, 0x00, 0x00, 0x00, 0x00, 0x00, 0x06, 0x00,
  0x08, 0x00, 0x04, 0x00, 0x06, 0x00, 0x00, 0x00, 0x04, 0x00, 0x00, 0x00,
  0x00, 0x00, 0x00, 0x00, 0x0c, 0x00, 0x18, 0x00, 0x14, 0x00, 0x10, 0x00,
  0x0c, 0x00, 0x04, 0x00, 0x0c, 0x00, 0x00, 0x00, 0xce, 0xd4, 0x74, 0x3b,
  0xc5, 0xbb, 0x5f, 0x6a, 0x02, 0x00, 0x00, 0x00, 0x02, 0x00, 0x00, 0x00,
  0x04, 0x00, 0x00, 0x00, 0x06, 0x00, 0x00, 0x00, 0x32, 0x2e, 0x31, 0x39,
  0x2e, 0x30, 0x00, 0x00, 0xd2, 0xf3, 0xff, 0xff, 0x04, 0x00, 0x00, 0x00,
  0x10, 0x00, 0x00, 0x00, 0x31, 0x2e, 0x31, 0x34, 0x2e, 0x30, 0x00, 0x00,
  0x00, 0x00, 0x00, 0x00, 0x00, 0x00, 0x00, 0x00, 0x20, 0xee, 0xff, 0xff,
  0x24, 0xee, 0xff, 0xff, 0x28, 0xee, 0xff, 0xff, 0x2c, 0xee, 0xff, 0xff,
  0xfe, 0xf3, 0xff, 0xff, 0x04, 0x00, 0x00, 0x00, 0x00, 0x03, 0x00, 0x00,
  0xba, 0x8e, 0x4a, 0x3e, 0xf0, 0x22, 0x7f, 0x3e, 0x58, 0xcf, 0x6e, 0xbe,
  0xba, 0x06, 0xe6, 0xbd, 0x6e, 0xf3, 0x01, 0x3e, 0x84, 0xfc, 0x84, 0xbc,
  0x57, 0x77, 0x91, 0x3e, 0x61, 0xca, 0xfb, 0x3c, 0xda, 0x93, 0xb5, 0x3e,
  0x46, 0x3d, 0x88, 0xbe, 0x8e, 0x97, 0x9b, 0xbc, 0xa6, 0x0b, 0x25, 0xbe,
  0xf9, 0xae, 0xbc, 0x3e, 0xf0, 0xaa, 0xe3, 0x3e, 0xc3, 0xd9, 0x9d, 0x3e,
  0x92, 0xfd, 0xf2, 0x3d, 0x8b, 0x7f, 0x6a, 0x3e, 0xc9, 0x81, 0x4f, 0xbe,
  0xa7, 0xf0, 0x4c, 0x3e, 0x64, 0x54, 0xf1, 0x3e, 0xb8, 0x51, 0x05, 0x3f,
  0xd0, 0xe4, 0x95, 0x3e, 0x22, 0x7e, 0x9f, 0x3e, 0x30, 0x91, 0x6a, 0xbe,
  0x03, 0x3a, 0x15, 0xbd, 0x34, 0xa6, 0xdd, 0xbe, 0xe2, 0x13, 0x8f, 0xbe,
  0x95, 0x1f, 0x34, 0x3e, 0x21, 0x44, 0x57, 0x3c, 0x22, 0x7b, 0x93, 0x3e,
  0x75, 0xb1, 0xed, 0xbe, 0x80, 0xff, 0x04, 0x3f, 0xe6, 0xab, 0x6d, 0x3e,
  0x6a, 0x9d, 0xe7, 0xbe, 0x69, 0x24, 0xb4, 0x3e, 0x54, 0xbb, 0x69, 0x3e,
  0x1d, 0xce, 0x86, 0x3e, 0xa0, 0x6f, 0xa6, 0xbe, 0x61, 0x29, 0x6f, 0x3f,
  0x43, 0x55, 0x84, 0x3e, 0xdc, 0xfe, 0x95, 0x3d, 0xde, 0xb1, 0x0b, 0x3e,
  0x17, 0x46, 0x45, 0x3e, 0x7b, 0x2f, 0xf1, 0xbe, 0xcf, 0x45, 0x18, 0x3c,
  0xd8, 0xaf, 0x2e, 0xbe, 0x8d, 0x7e, 0x84, 0xbe, 0xd2, 0xf8, 0xe2, 0x3d,
  0x34, 0xc2, 0xd5, 0x3d, 0x22, 0x23, 0x14, 0xbd, 0xae, 0x8e, 0xcb, 0x3e,
  0xe3, 0xeb, 0x12, 0x3d, 0x70, 0xf6, 0x21, 0xbe, 0x9f, 0x43, 0xd2, 0x3e,
  0xe9, 0xd5, 0x72, 0xbd, 0xe0, 0x72, 0xd3, 0xbe, 0xf7, 0x83, 0xd9, 0x3d,
  0xe0, 0x30, 0x85, 0xbe, 0x4f, 0x02, 0xa7, 0x3e, 0xce, 0x98, 0x72, 0x3e,
  0x35, 0xa2, 0x88, 0x3e, 0x59, 0x5c, 0xaf, 0xbd, 0x15, 0xa8, 0x57, 0xbd,
  0xe4, 0x21, 0x14, 0xbd, 0xaa, 0xc5, 0x21, 0xbd, 0x9e, 0xac, 0xc6, 0xbe,
  0xda, 0x15, 0x87, 0xbe, 0x06, 0xa0, 0x1c, 0x3f, 0x4d, 0x11, 0x17, 0x3f,
  0xcd, 0x69, 0x4d, 0x3e, 0x98, 0xf4, 0xa2, 0xbd, 0xda, 0x66, 0x86, 0x3e,
  0xb3, 0xfa, 0x4c, 0xbe, 0x7c, 0x53, 0x10, 0x3e, 0x8e, 0x15, 0xe4, 0x3d,
  0x1e, 0xbd, 0xaa, 0x3e, 0xf4, 0xe5, 0x6c, 0x3e, 0x6e, 0x47, 0xba, 0xbd,
  0xc5, 0xd1, 0x13, 0x3e, 0x5d, 0x3b, 0x04, 0xbf, 0x91, 0x97, 0xe0, 0x3e,
  0xcf, 0xb1, 0xf8, 0xba, 0x57, 0x3a, 0x42, 0x3e, 0x17, 0x0a, 0xc3, 0x3e,
  0xd8, 0x35, 0x7e, 0x3d, 0x9d, 0x64, 0xcd, 0xbe, 0x4b, 0x6f, 0x30, 0x3d,
  0x8b, 0x6a, 0x1e, 0x3d, 0x99, 0x7d, 0xb1, 0xbe, 0xd2, 0x96, 0xe2, 0x3d,
  0x7f, 0xe6, 0x5e, 0x3e, 0xdd, 0xd0, 0x34, 0x3f, 0x1a, 0x4c, 0xc4, 0x3e,
  0xe3, 0xc2, 0x93, 0x3c, 0x1c, 0x61, 0xbe, 0x3d, 0x8f, 0x91, 0x6d, 0x3e,
  0x55, 0xb3, 0xfd, 0xbe, 0x26, 0xc9, 0x93, 0xbe, 0xc7, 0x53, 0x8f, 0x3d,
  0xbd, 0xfc, 0x00, 0xbe, 0x84, 0x89, 0x52, 0xbe, 0x04, 0x4a, 0x0d, 0x3e,
  0x67, 0xa6, 0x86, 0x3e, 0xf6, 0x3e, 0x56, 0xbe, 0x43, 0x0c, 0xca, 0x3e,
  0xf3, 0x8a, 0xae, 0xbd, 0x21, 0x85, 0x38, 0x3d, 0xc1, 0x5b, 0xcc, 0xbd,
  0x3a, 0x7e, 0x58, 0xbd, 0x9b, 0xc5, 0x1b, 0x3d, 0x40, 0x3f, 0xef, 0x3e,
  0x41, 0xb8, 0xae, 0xbd, 0xee, 0x63, 0x8e, 0x3e, 0xc9, 0x87, 0x8c, 0xbd,
  0xeb, 0x2f, 0xdc, 0x3d, 0xd1, 0x0d, 0x83, 0x3e, 0xd3, 0xed, 0x9f, 0x3e,
  0x81, 0x9b, 0x60, 0xbe, 0x5e, 0x2e, 0x13, 0xbe, 0x60, 0x48, 0x38, 0xbd,
  0x3f, 0x44, 0xa6, 0xbd, 0xc0, 0xa3, 0x47, 0xbc, 0x40, 0xe2, 0xdd, 0x3e,
  0x42, 0x3a, 0x2e, 0x3e, 0xd6, 0x78, 0x40, 0x3e, 0xc3, 0x15, 0x03, 0xbe,
  0x34, 0x93, 0x84, 0xbe, 0x65, 0x85, 0xe5, 0xbe, 0x75, 0x95, 0x1a, 0xbf,
  0xe3, 0x4e, 0xcb, 0x3e, 0x1c, 0xea, 0x90, 0x3d, 0x2b, 0xa5, 0x96, 0x3e,
  0x78, 0xb2, 0x0a, 0x3d, 0x15, 0xa3, 0xa1, 0x3e, 0xf2, 0x2b, 0xfe, 0xbe,
  0x02, 0xc4, 0xea, 0x3d, 0x58, 0x48, 0xc3, 0xbe, 0x56, 0xdc, 0x70, 0x3e,
  0x45, 0x86, 0x8b, 0xbe, 0xe0, 0xe8, 0x14, 0x3f, 0x55, 0xb4, 0xf1, 0xbd,
  0x33, 0x1f, 0x0b, 0x3e, 0x92, 0x78, 0x45, 0x3d, 0x41, 0x75, 0x80, 0xbe,
  0x0a, 0xd9, 0x61, 0x3d, 0x50, 0xff, 0x3b, 0xbe, 0x9e, 0x42, 0x81, 0xbe,
  0x16, 0xe1, 0x89, 0xbe, 0x7d, 0x48, 0x9c, 0x3e, 0xed, 0x52, 0x8a, 0x3e,
  0x68, 0x35, 0x70, 0x3e, 0xa9, 0xc2, 0x7d, 0xbd, 0xd9, 0x63, 0xc0, 0xbe,
  0x29, 0x46, 0x27, 0xbe, 0x28, 0xa9, 0x9d, 0x3e, 0x86, 0x61, 0xf2, 0xbd,
  0x35, 0xf4, 0xea, 0x3d, 0xa9, 0x20, 0x28, 0xbe, 0xca, 0xbb, 0x1d, 0x3f,
  0xdf, 0x31, 0x29, 0x3e, 0xcd, 0x18, 0x4c, 0xbd, 0x93, 0x92, 0x18, 0xbe,
  0x65, 0xe0, 0x70, 0xbe, 0xdc, 0x3d, 0x27, 0xbf, 0x66, 0x61, 0x0f, 0xbf,
  0x4b, 0xb2, 0x94, 0x3d, 0xc2, 0x74, 0x04, 0xbd, 0x70, 0x1b, 0x12, 0x3e,
  0xec, 0x8f, 0x2a, 0x3f, 0xca, 0x51, 0xd2, 0xbe, 0x43, 0x46, 0x28, 0x3e,
  0x5b, 0x7d, 0xda, 0x3d, 0x0d, 0xa0, 0x03, 0x3d, 0x88, 0x43, 0x47, 0xbd,
  0x06, 0x49, 0x63, 0x3e, 0x5f, 0x3c, 0x67, 0xbd, 0x12, 0x3c, 0x1e, 0x3f,
  0x79, 0x27, 0xcc, 0xbc, 0x4c, 0x97, 0xad, 0x3e, 0xcb, 0xcc, 0xbc, 0xbb,
  0x53, 0x2a, 0x4d, 0x3e, 0x20, 0x51, 0xbf, 0xbe, 0xc5, 0x4f, 0x58, 0xbf,
  0x63, 0x97, 0xa4, 0x3d, 0xa8, 0xfc, 0x9b, 0xbd, 0x9d, 0x43, 0xf9, 0xbb,
  0xaa, 0x6c, 0x99, 0xbe, 0x4f, 0x60, 0x22, 0xbf, 0xa8, 0xa5, 0x12, 0x3f,
  0xad, 0x09, 0x2c, 0x3e, 0xa9, 0x80, 0x2b, 0xbe, 0x81, 0x3d, 0x81, 0xbc,
  0x0a, 0xf7, 0xff, 0xff, 0x04, 0x00, 0x00, 0x00, 0x80, 0x00, 0x00, 0x00,
  0xbb, 0x4e, 0x5f, 0xbd, 0x79, 0xc6, 0xc8, 0x3d, 0xcf, 0x17, 0xe0, 0xbc,
  0x14, 0x34, 0x12, 0x3e, 0x0d, 0xe3, 0x74, 0x3e, 0xa5, 0x55, 0x8d, 0x3e,
  0xeb, 0xfc, 0x5a, 0x3e, 0xec, 0xf5, 0x00, 0x3e, 0x40, 0xb5, 0xe6, 0x3d,
  0x45, 0x8a, 0x8b, 0x3d, 0xb0, 0x15, 0x1e, 0x3d, 0x12, 0x4e, 0xdf, 0x3e,
  0x21, 0x72, 0x96, 0x3c, 0x62, 0xe7, 0x82, 0xbd, 0xa7, 0x62, 0x54, 0x3e,
  0x1a, 0xb7, 0x92, 0x3e, 0x39, 0xfe, 0x32, 0xbe, 0xfc, 0xa7, 0x5a, 0xbc,
  0xf7, 0x54, 0x1c, 0xbd, 0xaa, 0xaf, 0xa9, 0x3e, 0xc6, 0x55, 0x57, 0xbe,
  0xcd, 0xfd, 0x3f, 0xbe, 0x0d, 0x7f, 0x1f, 0xbe, 0x7a, 0x60, 0x22, 0x3e,
  0x0c, 0x48, 0xf5, 0x3d, 0x5a, 0x2e, 0x2e, 0xbe, 0x16, 0xe5, 0x3f, 0x3e,
  0x0c, 0x57, 0x23, 0xbe, 0x41, 0x9e, 0x26, 0x3e, 0xd0, 0x30, 0x63, 0x3e,
  0xec, 0x0e, 0xa6, 0xbd, 0xa2, 0x6b, 0xbf, 0x3e, 0x96, 0xf7, 0xff, 0xff,
  0x04, 0x00, 0x00, 0x00, 0x40, 0x00, 0x00, 0x00, 0x75, 0x0b, 0x27, 0xbe,
  0x4f, 0xc3, 0xc8, 0x3c, 0xeb, 0x12, 0xb8, 0xbb, 0x82, 0x7a, 0x1d, 0x3e,
  0x0a, 0xe5, 0xc3, 0xbd, 0xf5, 0x32, 0x00, 0x3e, 0xf5, 0x3a, 0x4a, 0x3d,
  0xad, 0x07, 0xd4, 0x3d, 0x1e, 0xc9, 0x75, 0x3d, 0x47, 0x24, 0xe5, 0xbd,
  0xb0, 0xfe, 0xb2, 0xbb, 0xaf, 0xc1, 0x87, 0xbe, 0xd2, 0x2e, 0x0a, 0xbe,
  0xae, 0xf7, 0x01, 0x3d, 0x88, 0x59, 0x93, 0xbd, 0x90, 0x53, 0x5f, 0x3c,
  0xe2, 0xf7, 0xff, 0xff, 0x04, 0x00, 0x00, 0x00, 0x04, 0x00, 0x00, 0x00,
  0x08, 0x45, 0xb3, 0x3d, 0xf2, 0xf7, 0xff, 0xff, 0x04, 0x00, 0x00, 0x00,
  0x00, 0x08, 0x00, 0x00, 0x70, 0x5b, 0xce, 0x3d, 0xac, 0x83, 0x8d, 0xbe,
  0xd5, 0xe3, 0xb1, 0x3e, 0xd3, 0x21, 0x65, 0xbe, 0xe7, 0x82, 0x79, 0xbe,
  0x47, 0x8a, 0xa9, 0x3e, 0xfb, 0xc2, 0xd9, 0xbe, 0xbc, 0x19, 0xfe, 0x3c,
  0x93, 0x3b, 0x81, 0xbe, 0xeb, 0xdc, 0x9b, 0x3e, 0xbe, 0x3b, 0xae, 0xbd,
  0xc3, 0x26, 0x78, 0xbe, 0x96, 0x95, 0x55, 0xbe, 0x9c, 0x09, 0x31, 0x3e,
  0x3e, 0xce, 0xde, 0x3d, 0xff, 0x7a, 0x7e, 0xbc, 0x01, 0x98, 0xb8, 0x3d,
  0x18, 0xbb, 0xce, 0x3d, 0xaa, 0x57, 0xa0, 0xbd, 0xd9, 0x0e, 0x73, 0x3e,
  0x93, 0xe6, 0x5e, 0xbe, 0x5e, 0xd8, 0x07, 0x3e, 0xb9, 0x2e, 0x5c, 0xbe,
  0x7d, 0x3d, 0x65, 0x3d, 0x18, 0x93, 0x80, 0x3e, 0x2b, 0xa5, 0x0f, 0xbb,
  0xf6, 0x97, 0x72, 0xbf, 0xe0, 0xdc, 0xbc, 0x3e, 0x97, 0x7d, 0x76, 0x3e,
  0x30, 0x7f, 0x3a, 0xbd, 0x8c, 0xc5, 0xa3, 0x3d, 0x55, 0xe9, 0x30, 0x3e,
  0xf2, 0x64, 0x53, 0xbc, 0x55, 0x69, 0xc9, 0xbe, 0xf6, 0x33, 0x5e, 0x3c,
  0x51, 0xe3, 0x5f, 0xbe, 0xbc, 0x18, 0xf1, 0x3d, 0xad, 0x1e, 0xa8, 0xbd,
  0xea, 0x84, 0xcb, 0xbe, 0x62, 0x91, 0xcd, 0xba, 0x8a, 0x00, 0xb2, 0x3d,
  0xd8, 0x46, 0xea, 0x3d, 0xd7, 0xe8, 0x1d, 0x3e, 0x88, 0xa5, 0x95, 0xbe,
  0xf4, 0x4f, 0x66, 0xbe, 0x3f, 0xdf, 0x4c, 0xbe, 0x88, 0x7b, 0x05, 0xbe,
  0xf1, 0x8d, 0x6f, 0x3e, 0x9b, 0x76, 0xb7, 0x3d, 0x8b, 0x90, 0x0d, 0x3e,
  0x72, 0x18, 0xa8, 0x3e, 0x15, 0xb8, 0x26, 0x3e, 0xf1, 0x11, 0x97, 0x3e,
  0x34, 0x04, 0xbc, 0x3e, 0x7e, 0xb0, 0x31, 0xbe, 0xc6, 0x31, 0xb5, 0xbe,
  0xfd, 0x26, 0xeb, 0x3c, 0x0d, 0xe6, 0xbb, 0x3d, 0x4b, 0x0e, 0x50, 0xbf,
  0x70, 0xff, 0x8c, 0x3e, 0xd8, 0x35, 0x32, 0x3e, 0x66, 0x8d, 0x60, 0xbe,
  0x1b, 0x58, 0x91, 0x3e, 0x50, 0xf0, 0xa5, 0xbe, 0xc9, 0x00, 0x12, 0xbe,
  0x2d, 0x53, 0x95, 0xbe, 0x89, 0xd1, 0x8d, 0xbe, 0xbe, 0x5e, 0xe3, 0xbd,
  0xf3, 0x9b, 0x16, 0x3e, 0x33, 0x5e, 0x58, 0xbe, 0x5e, 0x30, 0xa9, 0xbe,
  0x1f, 0x8c, 0x24, 0xbe, 0x84, 0x8a, 0xb7, 0xbe, 0xc9, 0x63, 0x1f, 0xbe,
  0xd4, 0x57, 0x8a, 0x3e, 0xbe, 0x53, 0xdb, 0xbe, 0xa3, 0xca, 0xbf, 0xbd,
  0xdc, 0xbb, 0xc7, 0xbd, 0x5d, 0xfc, 0x8f, 0x3b, 0xf6, 0x22, 0x82, 0xbf,
  0x3a, 0xc4, 0xb0, 0x3e, 0xa3, 0x1f, 0xe5, 0x3c, 0xfc, 0xf8, 0x45, 0x3e,
  0x94, 0xa1, 0xc9, 0xbc, 0xdd, 0x20, 0x19, 0x3e, 0xc9, 0xf3, 0x4a, 0xbd,
  0x1c, 0xe0, 0x09, 0xbe, 0x82, 0xb0, 0xa1, 0xbd, 0xe7, 0x1b, 0x0f, 0x3d,
  0xb4, 0xaa, 0x42, 0x3c, 0x9b, 0x7d, 0xb9, 0xbe, 0x4b, 0x35, 0x84, 0x3e,
  0x70, 0x71, 0xe0, 0xbd, 0x2e, 0xcf, 0x9a, 0xbe, 0xa9, 0x52, 0xcc, 0x3e,
  0x2f, 0x65, 0x3a, 0x3e, 0x95, 0xd1, 0xaa, 0xbe, 0x15, 0x91, 0xc0, 0x3e,
  0x06, 0xf0, 0x9a, 0x3e, 0x3b, 0xad, 0xd5, 0xbd, 0x86, 0x99, 0x7b, 0x3e,
  0x5f, 0x89, 0xd3, 0xbd, 0x76, 0xa2, 0x80, 0x3c, 0xa9, 0xeb, 0xb6, 0x3d,
  0x44, 0xfe, 0x6b, 0x3e, 0x84, 0x35, 0xa5, 0x3e, 0xd5, 0xfc, 0x88, 0x3b,
  0x67, 0xfe, 0x46, 0xbc, 0xd7, 0x01, 0x58, 0xbe, 0xc4, 0xc4, 0x8d, 0x3d,
  0x11, 0x20, 0x81, 0x3e, 0x81, 0x9d, 0x9f, 0x3d, 0x69, 0xcf, 0xb1, 0x3d,
  0x17, 0x0e, 0xf2, 0x3d, 0xe3, 0xbe, 0x90, 0xbe, 0x18, 0x0b, 0xd1, 0x3d,
  0xe0, 0x0b, 0x6a, 0xbd, 0xf8, 0x8a, 0xc8, 0xbe, 0xb8, 0x9a, 0x53, 0xbe,
  0x3b, 0xe3, 0xa8, 0x3e, 0x49, 0x33, 0xdf, 0xbd, 0x7f, 0xac, 0xf8, 0xbd,
  0x7d, 0x72, 0x61, 0xbc, 0xe8, 0x17, 0x9f, 0xbc, 0x64, 0x0b, 0xad, 0x3e,
  0xa7, 0x66, 0x8d, 0x3e, 0x01, 0x80, 0x04, 0xbf, 0x1e, 0xab, 0xe4, 0x3d,
  0x99, 0xc7, 0x05, 0xbe, 0x66, 0x7e, 0x0f, 0xbe, 0x72, 0x3f, 0xbb, 0x3d,
  0x1b, 0x22, 0xca, 0x3d, 0xd3, 0xbd, 0x83, 0x3d, 0x0c, 0xd8, 0x91, 0xbe,
  0x4d, 0xbf, 0x0c, 0xbd, 0x17, 0x15, 0x8a, 0xbd, 0xb3, 0x7b, 0x36, 0xbe,
  0xbc, 0x0f, 0x2c, 0x3e, 0x27, 0x22, 0x65, 0xbe, 0x0c, 0x63, 0x7c, 0xbd,
  0xf9, 0x38, 0x70, 0x3b, 0x09, 0xa5, 0x80, 0xbd, 0x89, 0x90, 0x3d, 0x3e,
  0x0b, 0xe8, 0xd0, 0x3b, 0xf3, 0xd3, 0xa3, 0x3d, 0xc0, 0x4b, 0xb7, 0xbe,
  0xda, 0xbc, 0x84, 0xbe, 0x73, 0x1d, 0x70, 0x3d, 0xb1, 0x72, 0xa4, 0xbc,
  0x90, 0xb9, 0xb9, 0x3e, 0xec, 0xe6, 0x42, 0xbe, 0xc9, 0x71, 0x19, 0xbe,
  0xa3, 0x0c, 0x52, 0x3e, 0x2b, 0xeb, 0x85, 0xbe, 0x01, 0x1c, 0x89, 0xbe,
  0x4b, 0x64, 0xb6, 0xbd, 0x01, 0xc0, 0x9a, 0xbd, 0xab, 0xfb, 0xc7, 0x3d,
  0x2b, 0x00, 0xf4, 0xbd, 0xf1, 0x35, 0x82, 0x3e, 0xb4, 0xa2, 0xf2, 0xbc,
  0x53, 0x86, 0x1f, 0x3d, 0x93, 0x9b, 0xc6, 0xbd, 0x87, 0xf8, 0xf6, 0x3d,
  0x89, 0x92, 0xf6, 0xbe, 0xec, 0x82, 0x85, 0x3e, 0x2e, 0xe8, 0x61, 0x3e,
  0x2e, 0xe8, 0x68, 0xbe, 0x73, 0x5d, 0x80, 0xbd, 0x1a, 0xe5, 0x71, 0x3e,
  0x5b, 0x8c, 0x23, 0x3e, 0xba, 0x26, 0xe9, 0x3e, 0x1c, 0x2f, 0x89, 0x3c,
  0x2f, 0x28, 0x3a, 0x3e, 0xe4, 0x59, 0xda, 0xbe, 0x85, 0xc9, 0x14, 0x3d,
  0x45, 0x0f, 0xd4, 0xbd, 0xd6, 0xac, 0x63, 0x3e, 0x5e, 0xad, 0x83, 0xbe,
  0x81, 0xec, 0xc2, 0x3d, 0x86, 0x0e, 0x0f, 0xbe, 0xba, 0xc3, 0xde, 0xbe,
  0xad, 0xf0, 0x32, 0xbe, 0x4f, 0x9c, 0xdb, 0xbd, 0x05, 0x29, 0x17, 0xbe,
  0xd4, 0xf5, 0xa9, 0x3e, 0x03, 0xd2, 0xa4, 0x3e, 0x17, 0xc7, 0x03, 0xbe,
  0xaf, 0x3d, 0x66, 0xbe, 0xa0, 0x8b, 0x90, 0xbe, 0x5c, 0x7e, 0x46, 0xbe,
  0xb2, 0xcd, 0x51, 0x3e, 0x46, 0xf1, 0x1e, 0x3e, 0x9b, 0x0b, 0x64, 0x3e,
  0xad, 0x4e, 0x6e, 0x3e, 0x27, 0xb7, 0x79, 0x3c, 0x14, 0xc3, 0x9b, 0xba,
  0xf9, 0x40, 0x57, 0x3e, 0x25, 0x33, 0xa4, 0x3c, 0xa3, 0x2c, 0xff, 0x3d,
  0x31, 0x4b, 0xfe, 0xbd, 0xb7, 0xec, 0x4d, 0xbe, 0x33, 0x43, 0x87, 0xbe,
  0x5f, 0x77, 0x90, 0x3d, 0x0d, 0xb3, 0xc4, 0x3d, 0x83, 0xde, 0xb3, 0xbe,
  0x92, 0xc2, 0x8e, 0xbe, 0x87, 0x44, 0xfd, 0x3e, 0x88, 0xd1, 0xee, 0x3c,
  0x2c, 0x3b, 0xab, 0x3d, 0x3c, 0x12, 0xb7, 0xbd, 0x7f, 0x94, 0x9e, 0x3e,
  0xaa, 0x25, 0x30, 0x3e, 0x5a, 0xf0, 0xbf, 0xbe, 0x1b, 0xf8, 0xe5, 0x39,
  0xe7, 0xac, 0x8e, 0x3e, 0x5d, 0xca, 0x21, 0xbc, 0x4c, 0x79, 0x86, 0xbe,
  0x17, 0xb3, 0x25, 0xbe, 0xdd, 0xb8, 0x32, 0xbe, 0xe6, 0x5e, 0x7d, 0x3d,
  0xb6, 0x98, 0x6f, 0x3d, 0x70, 0xe6, 0x46, 0x3d, 0x96, 0x0f, 0x9b, 0x3e,
  0x8d, 0x44, 0x5c, 0x3e, 0x54, 0x1c, 0x9e, 0x3d, 0xbc, 0xe5, 0x61, 0x3e,
  0xb9, 0x70, 0x3a, 0xbe, 0xa0, 0xbc, 0x9c, 0x3e, 0x35, 0x3d, 0x3a, 0x3e,
  0xd3, 0x18, 0x1f, 0x3e, 0xa3, 0x0b, 0xb0, 0x3e, 0x9a, 0xce, 0x45, 0x3e,
  0x6c, 0xa1, 0x6b, 0x3e, 0x98, 0xac, 0x27, 0xbe, 0x2a, 0x21, 0x6b, 0x3d,
  0x42, 0x49, 0x33, 0x3e, 0xa8, 0xa6, 0xcd, 0x3d, 0x70, 0x0b, 0x9e, 0x3e,
  0x6e, 0x22, 0x91, 0x3e, 0x5d, 0x34, 0x19, 0x3d, 0x5f, 0x6d, 0x64, 0xbe,
  0x93, 0xc9, 0x36, 0x3e, 0xfe, 0xbd, 0xb5, 0xbe, 0xbf, 0xdb, 0x9c, 0xbc,
  0x8d, 0xaf, 0x75, 0x3e, 0x86, 0xf3, 0xb4, 0x3c, 0xfe, 0xb2, 0xd8, 0xbe,
  0x3c, 0x7a, 0x08, 0x3e, 0x74, 0x38, 0xae, 0x3d, 0x03, 0x9a, 0x97, 0xbe,
  0x5d, 0x7a, 0x77, 0xbe, 0xe1, 0x3a, 0x7d, 0x3e, 0x63, 0xd1, 0x30, 0x3d,
  0x5b, 0x90, 0x59, 0x3d, 0x2e, 0xb5, 0xa6, 0xbe, 0x31, 0x74, 0xee, 0xbc,
  0xbc, 0xa0, 0xe7, 0x3d, 0x1b, 0x7a, 0x83, 0x3e, 0xb1, 0xcf, 0x62, 0x3e,
  0x08, 0x0d, 0x72, 0xbb, 0xc2, 0x35, 0xb9, 0xbd, 0x83, 0x5d, 0xee, 0x3e,
  0xd3, 0x3c, 0xa4, 0x3e, 0xb1, 0x3a, 0x80, 0xbe, 0xc1, 0x6d, 0xa6, 0xbe,
  0x95, 0xde, 0xf0, 0x3c, 0x48, 0x32, 0xc6, 0xbd, 0x5a, 0xea, 0x92, 0xbe,
  0x6c, 0xc2, 0x4c, 0xba, 0x94, 0x5f, 0xc7, 0x3e, 0x43, 0x43, 0x1e, 0xbd,
  0xf6, 0x9b, 0x10, 0xbd, 0x95, 0x63, 0x4f, 0xbd, 0x3f, 0x56, 0x54, 0xbe,
  0x34, 0x84, 0x7e, 0xbd, 0x30, 0xfc, 0x33, 0xbe, 0xf5, 0x79, 0x7c, 0xbe,
  0x30, 0x22, 0x05, 0x3e, 0x4c, 0xc4, 0xda, 0xbd, 0x31, 0x88, 0x37, 0xbe,
  0xe6, 0x04, 0x95, 0x3e, 0xed, 0x4e, 0x88, 0x3d, 0xf1, 0xf3, 0x25, 0x3d,
  0x08, 0x52, 0xfa, 0x3e, 0x38, 0xf0, 0x99, 0x3e, 0xfd, 0x0a, 0x7c, 0xbe,
  0x42, 0x8b, 0x11, 0x3e, 0x96, 0xf3, 0x76, 0x3e, 0x2b, 0x5f, 0x9b, 0xbc,
  0x60, 0x91, 0xe7, 0xbd, 0x83, 0xe6, 0xa5, 0x3e, 0xfa, 0x12, 0xd3, 0xbe,
  0x7b, 0xf9, 0xb0, 0x3e, 0x47, 0x1a, 0xed, 0xbc, 0xf0, 0x99, 0x19, 0x3e,
  0xb0, 0xc6, 0xaa, 0x3e, 0xbd, 0x5a, 0x34, 0x3d, 0xaa, 0x16, 0xfb, 0x3d,
  0x8d, 0xcb, 0x8e, 0x3e, 0x9b, 0x61, 0x3c, 0x3e, 0x01, 0xd2, 0x3d, 0x3e,
  0x9b, 0xee, 0xb7, 0xbe, 0xaa, 0x21, 0x01, 0x3e, 0xcc, 0x25, 0x4d, 0xbd,
  0x76, 0x22, 0x37, 0x3e, 0x8e, 0xda, 0x2f, 0x3d, 0x6f, 0xae, 0x04, 0x3e,
  0x8e, 0x6b, 0x8a, 0xbe, 0x8f, 0xaf, 0x40, 0xbe, 0x76, 0xd1, 0xa9, 0x3e,
  0x8c, 0x75, 0xd6, 0x39, 0xe5, 0x38, 0x17, 0x3d, 0x63, 0x51, 0x37, 0x3e,
  0x46, 0xd8, 0x44, 0x3e, 0xbd, 0x64, 0x11, 0xbe, 0x82, 0xfe, 0x47, 0x3e,
  0xe8, 0xfe, 0x92, 0x3c, 0x1f, 0xd1, 0x10, 0x3e, 0xd3, 0x5b, 0x91, 0xbe,
  0x52, 0xa0, 0x8d, 0x3e, 0x1b, 0xb3, 0xad, 0xbd, 0x5e, 0xa8, 0x83, 0x3d,
  0x70, 0xfb, 0xa6, 0xbe, 0xd7, 0x07, 0x7d, 0x3e, 0x76, 0x32, 0x1a, 0x3e,
  0x6a, 0x1f, 0x9b, 0xbe, 0xd5, 0xd2, 0x71, 0x3e, 0x1a, 0x29, 0x78, 0xbe,
  0x47, 0x7e, 0xd0, 0xbc, 0x99, 0xdb, 0x49, 0xbe, 0x71, 0x8b, 0xa7, 0xbe,
  0x37, 0xd4, 0x02, 0xbc, 0x97, 0xb3, 0xc4, 0xbe, 0xfd, 0xdb, 0xcb, 0xbd,
  0x3e, 0x68, 0xef, 0xbe, 0x79, 0xf6, 0x02, 0xbe, 0x0a, 0x3b, 0xce, 0xbe,
  0x38, 0xfc, 0x57, 0x3e, 0x9b, 0xc8, 0xe6, 0xbe, 0xce, 0x4b, 0xaf, 0x3d,
  0xdd, 0xa3, 0xa9, 0x3e, 0x2a, 0x62, 0x1e, 0x3e, 0x01, 0x50, 0x81, 0x3e,
  0x90, 0x47, 0xf3, 0xbd, 0x6d, 0x6d, 0x26, 0x3e, 0x58, 0xa7, 0x11, 0xbe,
  0x20, 0x88, 0xba, 0xbe, 0x59, 0x1a, 0x55, 0x3d, 0xe7, 0xbf, 0x74, 0x3d,
  0xec, 0xe4, 0x27, 0x3e, 0x88, 0xcd, 0x99, 0xbe, 0xe1, 0x52, 0xac, 0xbe,
  0xcb, 0x20, 0x62, 0x3e, 0x5e, 0xd9, 0x9c, 0x3d, 0x49, 0xe4, 0xe7, 0x3d,
  0xf6, 0x76, 0x22, 0xbb, 0x84, 0x84, 0xac, 0x3e, 0x07, 0x45, 0x16, 0x3e,
  0x30, 0xd1, 0x0c, 0xbf, 0x57, 0x71, 0x8b, 0xbe, 0xaa, 0x8e, 0x89, 0x3e,
  0xad, 0x20, 0x86, 0x3e, 0x48, 0xe7, 0x7d, 0xbe, 0x14, 0x40, 0x25, 0x3e,
  0x29, 0x2a, 0x16, 0x3e, 0x4e, 0x03, 0x19, 0x3d, 0xc8, 0x9f, 0x14, 0xbe,
  0xb5, 0x70, 0x56, 0x3c, 0xa3, 0x0c, 0x37, 0x3e, 0x4a, 0x28, 0x12, 0xbc,
  0x23, 0x3b, 0xba, 0xbe, 0xd8, 0x92, 0x84, 0xbe, 0x6a, 0x06, 0x38, 0x3e,
  0x44, 0xa7, 0xc7, 0xbe, 0xc6, 0x13, 0x6d, 0x3d, 0x08, 0x4d, 0x5b, 0xbe,
  0x90, 0x7b, 0x2b, 0x3e, 0x9c, 0xa5, 0xb6, 0xbe, 0x88, 0xab, 0x80, 0xbe,
  0xe5, 0xc2, 0x28, 0x3e, 0x43, 0x47, 0xe7, 0xbd, 0x58, 0x0d, 0xcf, 0xbe,
  0xd8, 0x45, 0x76, 0x3e, 0xce, 0x7f, 0x76, 0xbe, 0x69, 0xf3, 0xb7, 0xbd,
  0x24, 0xac, 0x47, 0xbe, 0x47, 0x14, 0x3e, 0xbe, 0xec, 0xe2, 0xb1, 0x3e,
  0xd0, 0x82, 0x8d, 0xbc, 0x31, 0xeb, 0xb2, 0xbe, 0x96, 0x26, 0x51, 0x3c,
  0xc7, 0xff, 0xfe, 0xbd, 0x36, 0x8b, 0x75, 0x3e, 0xca, 0x96, 0xd9, 0x3c,
  0x7a, 0x05, 0x09, 0x3d, 0xb8, 0x9d, 0xb1, 0x3e, 0x6e, 0x10, 0x6d, 0x3e,
  0x42, 0x8f, 0xea, 0x3d, 0x3d, 0xd0, 0x27, 0xbe, 0x35, 0xcf, 0xa4, 0x3e,
  0xba, 0xcc, 0x49, 0x3d, 0x70, 0x6d, 0x03, 0x3e, 0xef, 0x72, 0xac, 0xbc,
  0xb7, 0x8b, 0x7e, 0x3b, 0xee, 0x1d, 0x6f, 0x3d, 0xe1, 0x78, 0x8d, 0xbe,
  0x00, 0xdb, 0x85, 0x3e, 0x10, 0x60, 0x7d, 0xbe, 0xa8, 0xb7, 0x94, 0x3e,
  0x80, 0xa3, 0xc2, 0xbe, 0x24, 0xd1, 0x0c, 0xbd, 0xd0, 0x95, 0x4a, 0xbe,
  0xdf, 0x09, 0x95, 0xbe, 0x06, 0x99, 0xc1, 0x3e, 0x05, 0x29, 0x22, 0xbe,
  0x19, 0x52, 0x8c, 0xbe, 0xe3, 0x3d, 0x3e, 0xbe, 0xa6, 0x3a, 0x26, 0x3e,
  0xe4, 0x06, 0x0b, 0x3e, 0xc6, 0x7e, 0x93, 0x3e, 0xf0, 0xc5, 0xe2, 0x3d,
  0x42, 0x26, 0xda, 0xbc, 0x02, 0x65, 0x9b, 0x3e, 0x6b, 0x71, 0xec, 0x3a,
  0x1c, 0x1b, 0x5c, 0xbe, 0xae, 0xb2, 0x0a, 0xbe, 0x2e, 0x54, 0x8e, 0x3e,
  0x3e, 0xe7, 0x82, 0xbe, 0x43, 0x19, 0xff, 0xbd, 0xb7, 0xc0, 0x00, 0x3e,
  0xa1, 0x3c, 0x9d, 0xbb, 0xd2, 0x00, 0xf9, 0xbd, 0x6e, 0xa9, 0x56, 0x3e,
  0xf5, 0x05, 0x69, 0x3e, 0x32, 0x2c, 0x6d, 0x3e, 0x9f, 0xaa, 0x98, 0xbc,
  0x0b, 0x92, 0x95, 0x3b, 0xce, 0x78, 0x4c, 0x3e, 0x35, 0x01, 0x0b, 0x3d,
  0x3a, 0x15, 0xbf, 0x3d, 0x4d, 0x9d, 0xc4, 0xbe, 0x3e, 0x8e, 0x6f, 0xbc,
  0xfb, 0xca, 0x9e, 0x3e, 0xe9, 0x0d, 0x9e, 0xbe, 0xaf, 0x48, 0x33, 0x3e,
  0x95, 0x4d, 0x1a, 0xbe, 0x39, 0x69, 0x95, 0x3c, 0x60, 0xa5, 0x58, 0x3e,
  0x52, 0x73, 0xbe, 0x3e, 0x5e, 0x65, 0x8a, 0x3e, 0x7f, 0x90, 0x00, 0x3e,
  0x54, 0x4f, 0x61, 0x3e, 0xec, 0x35, 0xb2, 0xbe, 0xb9, 0x1b, 0x68, 0xbe,
  0x91, 0xbc, 0x04, 0xbe, 0x0b, 0x89, 0x81, 0x3e, 0x0b, 0x54, 0x2b, 0xbe,
  0xeb, 0x0b, 0x3f, 0xbb, 0x4d, 0xc6, 0xc7, 0x3d, 0x8b, 0xa5, 0x31, 0x3e,
  0x7e, 0x53, 0x77, 0xbe, 0xac, 0xe2, 0x45, 0x3e, 0xa5, 0x17, 0x4f, 0x3d,
  0x61, 0xc8, 0xc7, 0x3d, 0xf6, 0x5b, 0x54, 0xbe, 0xd4, 0xa0, 0x2f, 0xbe,
  0x26, 0x8d, 0xab, 0x3e, 0xb7, 0xe6, 0x87, 0x3e, 0xa7, 0x65, 0x9e, 0x3e,
  0x2d, 0x66, 0x86, 0x3e, 0xc1, 0x7e, 0xc8, 0xbd, 0x01, 0xbf, 0x78, 0xbe,
  0x2f, 0x1b, 0x93, 0x3e, 0xc2, 0x76, 0xe7, 0xbd, 0xc2, 0xc7, 0x43, 0xbe,
  0x61, 0x92, 0xa2, 0xbd, 0xa1, 0x6c, 0xdd, 0x3d, 0x11, 0xe3, 0x66, 0x3d,
  0xe0, 0x06, 0xe7, 0xbd, 0x83, 0x56, 0xb9, 0x3e, 0x27, 0xab, 0x8c, 0xbe,
  0x4c, 0x0e, 0xb3, 0x3e, 0x3a, 0x52, 0x52, 0x3d, 0x81, 0x4a, 0x8d, 0x3e,
  0x00, 0x14, 0xd9, 0x3c, 0x3e, 0x9b, 0xc5, 0xbe, 0x8e, 0x18, 0x9c, 0x3e,
  0x9a, 0xf9, 0x9c, 0xbe, 0x3e, 0xb6, 0x25, 0x3e, 0x6a, 0x94, 0xd8, 0xbe,
  0x5e, 0x43, 0x63, 0x3e, 0xfa, 0xd6, 0x1d, 0xbd, 0x62, 0x3c, 0xc8, 0xbe,
  0xea, 0x9b, 0x3c, 0x3e, 0x62, 0xcc, 0x1e, 0x3e, 0xc4, 0x91, 0x65, 0x3e,
  0x4e, 0x1f, 0xb6, 0xbe, 0x35, 0xc4, 0xb4, 0xbc, 0xb1, 0x73, 0x1f, 0x3d,
  0x0e, 0xb8, 0x86, 0xbe, 0x1d, 0x14, 0x58, 0xbe, 0xf2, 0x36, 0x34, 0x3d,
  0xfa, 0xd8, 0x26, 0xbe, 0xb6, 0xb4, 0xbd, 0xbd, 0x09, 0xed, 0x5e, 0x3e,
  0xab, 0xc0, 0x00, 0xbf, 0xb4, 0xcf, 0xd9, 0x3e, 0x5f, 0xdb, 0x5c, 0x3e,
  0x8a, 0x2d, 0xe9, 0xbd, 0xd4, 0x8d, 0x91, 0xbd, 0x73, 0xef, 0xb3, 0xbd,
  0x00, 0x00, 0x06, 0x00, 0x08, 0x00, 0x04, 0x00, 0x06, 0x00, 0x00, 0x00,
  0x04, 0x00, 0x00, 0x00, 0x40, 0x00, 0x00, 0x00, 0x2b, 0xa7, 0x73, 0xbd,
  0x7a, 0x62, 0x48, 0xbf, 0x05, 0xa9, 0xfc, 0xbe, 0x00, 0x91, 0x39, 0x3f,
  0xfb, 0x3d, 0x13, 0xbf, 0xa2, 0x2e, 0xdc, 0xbd, 0x45, 0x49, 0x0d, 0xbf,
  0xab, 0x70, 0xb9, 0x3e, 0x67, 0xdf, 0xdc, 0x3d, 0x73, 0x5f, 0xed, 0xbd,
  0x99, 0xab, 0x10, 0x3f, 0x9f, 0x26, 0xa4, 0xbe, 0x9c, 0x1b, 0x07, 0xbf,
  0x07, 0x11, 0xe7, 0xbe, 0x4c, 0x3c, 0x4f, 0x3e, 0x46, 0xee, 0x6b, 0xbe,
  0x84, 0xfa, 0xff, 0xff, 0x88, 0xfa, 0xff, 0xff, 0x0f, 0x00, 0x00, 0x00,
  0x4d, 0x4c, 0x49, 0x52, 0x20, 0x43, 0x6f, 0x6e, 0x76, 0x65, 0x72, 0x74,
  0x65, 0x64, 0x2e, 0x00, 0x01, 0x00, 0x00, 0x00, 0x14, 0x00, 0x00, 0x00,
  0x00, 0x00, 0x0e, 0x00, 0x18, 0x00, 0x14, 0x00, 0x10, 0x00, 0x0c, 0x00,
  0x08, 0x00, 0x04, 0x00, 0x0e, 0x00, 0x00, 0x00, 0x14, 0x00, 0x00, 0x00,
  0x1c, 0x00, 0x00, 0x00, 0x08, 0x01, 0x00, 0x00, 0x0c, 0x01, 0x00, 0x00,
  0x10, 0x01, 0x00, 0x00, 0x04, 0x00, 0x00, 0x00, 0x6d, 0x61, 0x69, 0x6e,
  0x00, 0x00, 0x00, 0x00, 0x04, 0x00, 0x00, 0x00, 0xb0, 0x00, 0x00, 0x00,
  0x68, 0x00, 0x00, 0x00, 0x34, 0x00, 0x00, 0x00, 0x10, 0x00, 0x00, 0x00,
  0x00, 0x00, 0x0a, 0x00, 0x10, 0x00, 0x0c, 0x00, 0x08, 0x00, 0x04, 0x00,
  0x0a, 0x00, 0x00, 0x00, 0x0c, 0x00, 0x00, 0x00, 0x10, 0x00, 0x00, 0x00,
  0x01, 0x00, 0x00, 0x00, 0x01, 0x00, 0x00, 0x00, 0x0a, 0x00, 0x00, 0x00,
  0x01, 0x00, 0x00, 0x00, 0x09, 0x00, 0x00, 0x00, 0x9a, 0xff, 0xff, 0xff,
  0x10, 0x00, 0x00, 0x00, 0x00, 0x00, 0x00, 0x08, 0x0c, 0x00, 0x00, 0x00,
  0x10, 0x00, 0x00, 0x00, 0x30, 0xfb, 0xff, 0xff, 0x01, 0x00, 0x00, 0x00,
  0x09, 0x00, 0x00, 0x00, 0x03, 0x00, 0x00, 0x00, 0x08, 0x00, 0x00, 0x00,
  0x01, 0x00, 0x00, 0x00, 0x03, 0x00, 0x00, 0x00, 0xca, 0xff, 0xff, 0xff,
  0x10, 0x00, 0x00, 0x00, 0x00, 0x00, 0x00, 0x08, 0x10, 0x00, 0x00, 0x00,
  0x14, 0x00, 0x00, 0x00, 0xba, 0xff, 0xff, 0xff, 0x00, 0x00, 0x00, 0x01,
  0x01, 0x00, 0x00, 0x00, 0x08, 0x00, 0x00, 0x00, 0x03, 0x00, 0x00, 0x00,
  0x07, 0x00, 0x00, 0x00, 0x02, 0x00, 0x00, 0x00, 0x04, 0x00, 0x00, 0x00,
  0x00, 0x00, 0x0e, 0x00, 0x16, 0x00, 0x00, 0x00, 0x10, 0x00, 0x0c, 0x00,
  0x0b, 0x00, 0x04, 0x00, 0x0e, 0x00, 0x00, 0x00, 0x18, 0x00, 0x00, 0x00,
  0x00, 0x00, 0x00, 0x08, 0x18, 0x00, 0x00, 0x00, 0x1c, 0x00, 0x00, 0x00,
  0x00, 0x00, 0x06, 0x00, 0x08, 0x00, 0x07, 0x00, 0x06, 0x00, 0x00, 0x00,
  0x00, 0x00, 0x00, 0x01, 0x01, 0x00, 0x00, 0x00, 0x07, 0x00, 0x00, 0x00,
  0x03, 0x00, 0x00, 0x00, 0x00, 0x00, 0x00, 0x00, 0x06, 0x00, 0x00, 0x00,
  0x05, 0x00, 0x00, 0x00, 0x01, 0x00, 0x00, 0x00, 0x0a, 0x00, 0x00, 0x00,
  0x01, 0x00, 0x00, 0x00, 0x00, 0x00, 0x00, 0x00, 0x0b, 0x00, 0x00, 0x00,
  0xf8, 0x03, 0x00, 0x00, 0xa0, 0x03, 0x00, 0x00, 0x48, 0x03, 0x00, 0x00,
  0x0c, 0x03, 0x00, 0x00, 0xb0, 0x02, 0x00, 0x00, 0x58, 0x02, 0x00, 0x00,
  0x0c, 0x02, 0x00, 0x00, 0x78, 0x01, 0x00, 0x00, 0xdc, 0x00, 0x00, 0x00,
  0x60, 0x00, 0x00, 0x00, 0x04, 0x00, 0x00, 0x00, 0x4a, 0xfc, 0xff, 0xff,
  0x00, 0x00, 0x00, 0x01, 0x14, 0x00, 0x00, 0x00, 0x1c, 0x00, 0x00, 0x00,
  0x1c, 0x00, 0x00, 0x00, 0x0b, 0x00, 0x00, 0x00, 0x34, 0x00, 0x00, 0x00,
  0x02, 0x00, 0x00, 0x00, 0xff, 0xff, 0xff, 0xff, 0x01, 0x00, 0x00, 0x00,
  0x34, 0xfc, 0xff, 0xff, 0x1b, 0x00, 0x00, 0x00, 0x53, 0x74, 0x61, 0x74,
  0x65, 0x66, 0x75, 0x6c, 0x50, 0x61, 0x72, 0x74, 0x69, 0x74, 0x69, 0x6f,
  0x6e, 0x65, 0x64, 0x43, 0x61, 0x6c, 0x6c, 0x5f, 0x31, 0x3a, 0x30, 0x00,
  0x02, 0x00, 0x00, 0x00, 0x01, 0x00, 0x00, 0x00, 0x01, 0x00, 0x00, 0x00,
  0xa2, 0xfc, 0xff, 0xff, 0x00, 0x00, 0x00, 0x01, 0x14, 0x00, 0x00, 0x00,
  0x1c, 0x00, 0x00, 0x00, 0x1c, 0x00, 0x00, 0x00, 0x0a, 0x00, 0x00, 0x00,
  0x54, 0x00, 0x00, 0x00, 0x02, 0x00, 0x00, 0x00, 0xff, 0xff, 0xff, 0xff,
  0x01, 0x00, 0x00, 0x00, 0x8c, 0xfc, 0xff, 0xff, 0x38, 0x00, 0x00, 0x00,
  0x73, 0x65, 0x71, 0x75, 0x65, 0x6e, 0x74, 0x69, 0x61, 0x6c, 0x5f, 0x31,
  0x2f, 0x64, 0x65, 0x6e, 0x73, 0x65, 0x5f, 0x32, 0x5f, 0x31, 0x2f, 0x4d,
  0x61, 0x74, 0x4d, 0x75, 0x6c, 0x3b, 0x73, 0x65, 0x71, 0x75, 0x65, 0x6e,
  0x74, 0x69, 0x61, 0x6c, 0x5f, 0x31, 0x2f, 0x64, 0x65, 0x6e, 0x73, 0x65,
  0x5f, 0x32, 0x5f, 0x31, 0x2f, 0x41, 0x64, 0x64, 0x00, 0x00, 0x00, 0x00,
  0x02, 0x00, 0x00, 0x00, 0x01, 0x00, 0x00, 0x00, 0x01, 0x00, 0x00, 0x00,
  0x1a, 0xfd, 0xff, 0xff, 0x00, 0x00, 0x00, 0x01, 0x14, 0x00, 0x00, 0x00,
  0x1c, 0x00, 0x00, 0x00, 0x1c, 0x00, 0x00, 0x00, 0x09, 0x00, 0x00, 0x00,
  0x74, 0x00, 0x00, 0x00, 0x02, 0x00, 0x00, 0x00, 0xff, 0xff, 0xff, 0xff,
  0x10, 0x00, 0x00, 0x00, 0x04, 0xfd, 0xff, 0xff, 0x58, 0x00, 0x00, 0x00,
  0x73, 0x65, 0x71, 0x75, 0x65, 0x6e, 0x74, 0x69, 0x61, 0x6c, 0x5f, 0x31,
  0x2f, 0x64, 0x65, 0x6e, 0x73, 0x65, 0x5f, 0x31, 0x5f, 0x32, 0x2f, 0x4d,
  0x61, 0x74, 0x4d, 0x75, 0x6c, 0x3b, 0x73, 0x65, 0x71, 0x75, 0x65, 0x6e,
  0x74, 0x69, 0x61, 0x6c, 0x5f, 0x31, 0x2f, 0x64, 0x65, 0x6e, 0x73, 0x65,
  0x5f, 0x31, 0x5f, 0x32, 0x2f, 0x52, 0x65, 0x6c, 0x75, 0x3b, 0x73, 0x65,
  0x71, 0x75, 0x65, 0x6e, 0x74, 0x69, 0x61, 0x6c, 0x5f, 0x31, 0x2f, 0x64,
  0x65, 0x6e, 0x73, 0x65, 0x5f, 0x31, 0x5f, 0x32, 0x2f, 0x42, 0x69, 0x61,
  0x73, 0x41, 0x64, 0x64, 0x00, 0x00, 0x00, 0x00, 0x02, 0x00, 0x00, 0x00,
  0x01, 0x00, 0x00, 0x00, 0x10, 0x00, 0x00, 0x00, 0xb2, 0xfd, 0xff, 0xff,
  0x00, 0x00, 0x00, 0x01, 0x14, 0x00, 0x00, 0x00, 0x1c, 0x00, 0x00, 0x00,
  0x1c, 0x00, 0x00, 0x00, 0x08, 0x00, 0x00, 0x00, 0x6c, 0x00, 0x00, 0x00,
  0x02, 0x00, 0x00, 0x00, 0xff, 0xff, 0xff, 0xff, 0x20, 0x00, 0x00, 0x00,
  0x9c, 0xfd, 0xff, 0xff, 0x52, 0x00, 0x00, 0x00, 0x73, 0x65, 0x71, 0x75,
  0x65, 0x6e, 0x74, 0x69, 0x61, 0x6c, 0x5f, 0x31, 0x2f, 0x64, 0x65, 0x6e,
  0x73, 0x65, 0x5f, 0x31, 0x2f, 0x4d, 0x61, 0x74, 0x4d, 0x75, 0x6c, 0x3b,
  0x73, 0x65, 0x71, 0x75, 0x65, 0x6e, 0x74, 0x69, 0x61, 0x6c, 0x5f, 0x31,
  0x2f, 0x64, 0x65, 0x6e, 0x73, 0x65, 0x5f, 0x31, 0x2f, 0x52, 0x65, 0x6c,
  0x75, 0x3b, 0x73, 0x65, 0x71, 0x75, 0x65, 0x6e, 0x74, 0x69, 0x61, 0x6c,
  0x5f, 0x31, 0x2f, 0x64, 0x65, 0x6e, 0x73, 0x65, 0x5f, 0x31, 0x2f, 0x42,
  0x69, 0x61, 0x73, 0x41, 0x64, 0x64, 0x00, 0x00, 0x02, 0x00, 0x00, 0x00,
  0x01, 0x00, 0x00, 0x00, 0x20, 0x00, 0x00, 0x00, 0x96, 0xfe, 0xff, 0xff,
  0x00, 0x00, 0x00, 0x01, 0x10, 0x00, 0x00, 0x00, 0x10, 0x00, 0x00, 0x00,
  0x07, 0x00, 0x00, 0x00, 0x28, 0x00, 0x00, 0x00, 0x1c, 0xfe, 0xff, 0xff,
  0x1b, 0x00, 0x00, 0x00, 0x73, 0x65, 0x71, 0x75, 0x65, 0x6e, 0x74, 0x69,
  0x61, 0x6c, 0x5f, 0x31, 0x2f, 0x64, 0x65, 0x6e, 0x73, 0x65, 0x5f, 0x31,
  0x2f, 0x4d, 0x61, 0x74, 0x4d, 0x75, 0x6c, 0x00, 0x02, 0x00, 0x00, 0x00,
  0x20, 0x00, 0x00, 0x00, 0x06, 0x00, 0x00, 0x00, 0xde, 0xfe, 0xff, 0xff,
  0x00, 0x00, 0x00, 0x01, 0x10, 0x00, 0x00, 0x00, 0x10, 0x00, 0x00, 0x00,
  0x06, 0x00, 0x00, 0x00, 0x38, 0x00, 0x00, 0x00, 0x64, 0xfe, 0xff, 0xff,
  0x2b, 0x00, 0x00, 0x00, 0x73, 0x65, 0x71, 0x75, 0x65, 0x6e, 0x74, 0x69,
  0x61, 0x6c, 0x5f, 0x31, 0x2f, 0x64, 0x65, 0x6e, 0x73, 0x65, 0x5f, 0x31,
  0x2f, 0x42, 0x69, 0x61, 0x73, 0x41, 0x64, 0x64, 0x2f, 0x52, 0x65, 0x61,
  0x64, 0x56, 0x61, 0x72, 0x69, 0x61, 0x62, 0x6c, 0x65, 0x4f, 0x70, 0x00,
  0x01, 0x00, 0x00, 0x00, 0x20, 0x00, 0x00, 0x00, 0x32, 0xff, 0xff, 0xff,
  0x00, 0x00, 0x00, 0x01, 0x10, 0x00, 0x00, 0x00, 0x10, 0x00, 0x00, 0x00,
  0x05, 0x00, 0x00, 0x00, 0x3c, 0x00, 0x00, 0x00, 0xb8, 0xfe, 0xff, 0xff,
  0x2d, 0x00, 0x00, 0x00, 0x73, 0x65, 0x71, 0x75, 0x65, 0x6e, 0x74, 0x69,
  0x61, 0x6c, 0x5f, 0x31, 0x2f, 0x64, 0x65, 0x6e, 0x73, 0x65, 0x5f, 0x31,
  0x5f, 0x32, 0x2f, 0x42, 0x69, 0x61, 0x73, 0x41, 0x64, 0x64, 0x2f, 0x52,
  0x65, 0x61, 0x64, 0x56, 0x61, 0x72, 0x69, 0x61, 0x62, 0x6c, 0x65, 0x4f,
  0x70, 0x00, 0x00, 0x00, 0x01, 0x00, 0x00, 0x00, 0x10, 0x00, 0x00, 0x00,
  0x8a, 0xff, 0xff, 0xff, 0x00, 0x00, 0x00, 0x01, 0x10, 0x00, 0x00, 0x00,
  0x10, 0x00, 0x00, 0x00, 0x04, 0x00, 0x00, 0x00, 0x1c, 0x00, 0x00, 0x00,
  0x10, 0xff, 0xff, 0xff, 0x0f, 0x00, 0x00, 0x00, 0x61, 0x72, 0x69, 0x74,
  0x68, 0x2e, 0x63, 0x6f, 0x6e, 0x73, 0x74, 0x61, 0x6e, 0x74, 0x32, 0x00,
  0x01, 0x00, 0x00, 0x00, 0x01, 0x00, 0x00, 0x00, 0xc2, 0xff, 0xff, 0xff,
  0x00, 0x00, 0x00, 0x01, 0x10, 0x00, 0x00, 0x00, 0x10, 0x00, 0x00, 0x00,
  0x03, 0x00, 0x00, 0x00, 0x1c, 0x00, 0x00, 0x00, 0x48, 0xff, 0xff, 0xff,
  0x0f, 0x00, 0x00, 0x00, 0x61, 0x72, 0x69, 0x74, 0x68, 0x2e, 0x63, 0x6f,
  0x6e, 0x73, 0x74, 0x61, 0x6e, 0x74, 0x31, 0x00, 0x02, 0x00, 0x00, 0x00,
  0x10, 0x00, 0x00, 0x00, 0x20, 0x00, 0x00, 0x00, 0x00, 0x00, 0x16, 0x00,
  0x18, 0x00, 0x14, 0x00, 0x00, 0x00, 0x10, 0x00, 0x0c, 0x00, 0x08, 0x00,
  0x00, 0x00, 0x00, 0x00, 0x00, 0x00, 0x07, 0x00, 0x16, 0x00, 0x00, 0x00,
  0x00, 0x00, 0x00, 0x01, 0x10, 0x00, 0x00, 0x00, 0x10, 0x00, 0x00, 0x00,
  0x02, 0x00, 0x00, 0x00, 0x1c, 0x00, 0x00, 0x00, 0x9c, 0xff, 0xff, 0xff,
  0x0e, 0x00, 0x00, 0x00, 0x61, 0x72, 0x69, 0x74, 0x68, 0x2e, 0x63, 0x6f,
  0x6e, 0x73, 0x74, 0x61, 0x6e, 0x74, 0x00, 0x00, 0x02, 0x00, 0x00, 0x00,
  0x01, 0x00, 0x00, 0x00, 0x10, 0x00, 0x00, 0x00, 0x00, 0x00, 0x16, 0x00,
  0x1c, 0x00, 0x18, 0x00, 0x00, 0x00, 0x14, 0x00, 0x10, 0x00, 0x0c, 0x00,
  0x00, 0x00, 0x00, 0x00, 0x08, 0x00, 0x07, 0x00, 0x16, 0x00, 0x00, 0x00,
  0x00, 0x00, 0x00, 0x01, 0x14, 0x00, 0x00, 0x00, 0x20, 0x00, 0x00, 0x00,
  0x20, 0x00, 0x00, 0x00, 0x01, 0x00, 0x00, 0x00, 0x3c, 0x00, 0x00, 0x00,
  0x02, 0x00, 0x00, 0x00, 0xff, 0xff, 0xff, 0xff, 0x06, 0x00, 0x00, 0x00,
  0x04, 0x00, 0x04, 0x00, 0x04, 0x00, 0x00, 0x00, 0x1e, 0x00, 0x00, 0x00,
  0x73, 0x65, 0x72, 0x76, 0x69, 0x6e, 0x67, 0x5f, 0x64, 0x65, 0x66, 0x61,
  0x75, 0x6c, 0x74, 0x5f, 0x6b, 0x65, 0x72, 0x61, 0x73, 0x5f, 0x74, 0x65,
  0x6e, 0x73, 0x6f, 0x72, 0x3a, 0x30, 0x00, 0x00, 0x02, 0x00, 0x00, 0x00,
  0x01, 0x00, 0x00, 0x00, 0x06, 0x00, 0x00, 0x00, 0x02, 0x00, 0x00, 0x00,
  0x20, 0x00, 0x00, 0x00, 0x04, 0x00, 0x00, 0x00, 0xf4, 0xff, 0xff, 0xff,
  0x0e, 0x00, 0x00, 0x00, 0x00, 0x00, 0x00, 0x0e, 0x0c, 0x00, 0x0c, 0x00,
  0x0b, 0x00, 0x00, 0x00, 0x00, 0x00, 0x04, 0x00, 0x0c, 0x00, 0x00, 0x00,
  0x09, 0x00, 0x00, 0x00, 0x00, 0x00, 0x00, 0x09
};
unsigned int handshake_model_tflite_len = 5144;
